[PAD]
[UNK]
[CLS]
[SEP]
[MASK]
-
0
1
2
3
4
5
6
7
8
9
a
b
c
d
e
f
g
h
i
k
l
m
n
o
p
r
s
t
u
w
x
z
¢
£
·
º
¿
ø
ł
ɔ
ʌ
ʹ
˅
˹
˺
α
ε
η
ι
ο
υ
ω
ϐ
ϑ
ϒ
ϕ
ϡ
ϵ
϶
а
о
п
є
־
א
ב
ג
ד
ה
ו
ז
ח
ט
ך
כ
ל
ם
מ
ן
נ
ס
ע
ף
פ
ץ
צ
ק
ר
ש
ת
ع
م
ن
᾿
῾
‒
–
‖
†
⁋
☧
ⱶ
〈
〉
「
ﬠ
ﬢ
ﬣ
ﬤ
ﬨ
##e
##f
##u
##l
##s
##r
##a
##n
##t
##p
##o
##i
##m
##b
##g
##c
##h
##d
##2
##x
##z
##υ
##1
##7
##8
##ο
##0
##3
##ι
##α
##ε
##6
##η
##ω
##4
##ϕ
##9
##5
##w
##ϑ
##ע
##מ
##ד
##˺
##˹
##ר
##ת
##כ
##ח
##ם
##᾿
##k
##ו
##נ
##ט
##א
##ק
##צ
##ה
##ב
##ף
##ש
##ϐ
##ﬠ
##ג
##ל
##פ
##ס
##ʹ
##ן
##ł
##ץ
##ع
##م
##ז
##ⱶ
##ך
##ø
##ɔ
##є
##º
##а
##ﬨ
##ϵ
##ϒ
##о
##ﬤ
##er
##um
##ti
##it
##us
cu
##on
##is
##en
##at
in
##em
##ic
##am
##or
et
##es
##an
##ur
##ec
##in
##st
##un
##ar
##et
pr
##li
##im
de
est
##os
##ati
##od
cui
##cu
##ed
##om
##as
##el
non
##ut
con
ad
su
##unt
##ent
##ib
##al
##ul
##id
cuod
##ci
per
##ol
ex
##ab
##ant
##oc
##enti
##ud
##ir
##ere
pro
ut
di
##ac
cue
##end
dic
##uit
##il
##ens
##per
##ot
##gn
##se
##ius
##orum
##ra
##atur
##uer
##omin
si
cum
il
##ta
##ter
##ation
##ia
an
re
sed
##itur
##lic
es
##ri
om
##tis
omn
aut
uer
##und
un
er
##cue
ill
##ibus
##bus
ac
se
##est
ip
sec
##re
sic
##ost
##and
id
##ili
cuia
##tum
##ris
##tus
nec
en
##tion
hoc
hab
ab
##uc
im
##fic
uel
##te
sp
ma
##ue
##ari
ips
sunt
##itat
cor
##are
##go
prop
ca
ali
##ui
pot
autem
enim
me
##iter
cons
##atis
domin
##bi
com
##tin
cuam
##eb
esse
int
par
##pi
ap
##etur
##iss
##ine
secund
##por
ch
##eg
uid
##tiam
cuid
san
##de
##ium
pos
##ess
uir
cuo
##ob
alic
##ua
##ell
ter
##io
##cc
##ion
##tit
eius
tr
##iam
am
##uis
pl
##ep
sub
chris
pat
ar
##to
sol
cont
res
tam
sit
##ff
##lig
##unc
sicut
##imus
for
al
dis
super
##entia
ergo
##op
fac
bon
pec
##tio
##ii
##pl
prim
sim
sanc
etiam
##ie
##aci
##arum
mor
##atum
secundum
anim
inter
or
##ata
##cul
##atio
##ali
tem
fili
##tu
sc
dei
##uers
potest
sci
inf
at
##ans
homin
poss
co
##atus
alicu
##atione
ob
rec
ita
##ior
ui
pecc
##itas
uol
##ate
mod
car
cr
##ih
##ibi
gr
spir
##uen
st
gen
fr
lib
##entes
mul
##anti
##ationem
deus
##tem
spirit
##rum
##alis
nost
post
##ando
tu
diu
##antur
du
iud
ecc
##ern
##ro
##cuam
##ad
ser
##itate
natur
##eo
##endum
##isi
##eri
as
##inis
##cip
##tim
ist
des
##erit
##edic
##itatem
##obis
ess
tamen
inc
hec
op
##untur
ius
comm
fid
##antum
uen
##pon
##ita
man
ne
sum
leg
##ug
uero
acc
te
##di
dicit
##les
reg
##ator
pa
caus
deb
sac
##tor
##fec
sin
##tionem
##pos
##gni
nisi
##eret
##inem
##ite
sal
##pr
unde
cel
faci
##erunt
cap
prec
##auit
fi
##rip
##entis
##itum
dicitur
ag
mat
sem
eccles
##eter
##entiam
uerb
nam
conf
##itatis
##ex
##eli
##tr
dix
cuibus
##ocu
dec
##tione
##aliter
mal
hum
eo
nos
cuas
oper
##gis
nul
##plic
deo
eum
prin
mis
loc
pres
propter
no
##aud
##ram
##ip
gl
corpor
hu
cl
spec
##cipi
grati
cuem
##tur
is
##isc
pen
contra
##omo
##entur
##gitur
ins
conc
ben
##ationis
##ap
omnia
intell
##ore
ipse
christi
tot
cua
##uli
atcue
##tia
##ub
##ina
##ente
sep
##abil
pers
null
aud
tempor
##ffic
##itus
##elic
modo
##edi
nobis
omnes
##atem
app
iudic
dominus
##endo
##ass
uoc
intel
form
ideo
pon
imm
##ale
magn
intellig
magis
##ihil
##lec
illi
illud
us
sibi
##itud
##orem
##ux
##ag
iam
nihil
##uid
##ecu
cir
predic
##licet
scilicet
sup
cre
hic
sine
habet
illa
fuer
##entum
mund
huius
mo
##pus
##amus
homo
min
##ibil
red
##issim
apost
uolunt
##ini
num
col
igitur
##mod
##entem
cred
eorum
his
scrip
cuis
gener
deum
cuidem
##ei
##entie
##entibus
cuando
exc
ord
ipsum
##eat
sa
##tius
cuasi
simil
##tic
sua
ang
rem
##uum
sus
ign
##alem
cuon
ea
erat
##le
nomin
##ig
##tibus
ei
##ici
doc
##ist
fuit
ten
glor
ubi
ph
sens
ass
locu
##erat
##ebat
##ord
tunc
abs
fl
mon
##esc
##endi
##irm
esset
incu
##ang
cuius
ind
imp
necue
ep
##tam
##emus
mih
cuoniam
mihi
ille
##ionem
##oli
fec
##ch
pre
comp
##tionis
siue
##ire
alter
pop
intellec
##gr
etern
##ato
ul
##gnific
apostol
contin
##erum
circ
lic
##uo
iusti
primo
eis
ipsa
omnibus
##git
ann
propri
##iu
eos
tibi
##dit
##sim
carn
##uitur
domini
##enter
ait
##ione
##up
nunc
##uerunt
th
perfec
unum
##tium
item
frat
ante
##tut
tantum
##ider
be
##xim
##fer
trans
cer
mar
ego
respon
sapi
aff
cuantum
cogn
uirtut
##int
##biec
uis
##stanti
##ulo
##one
alicuid
idem
liber
necess
ibi
ost
##ueni
uni
##str
spiritus
gra
causa
mem
##eris
eu
dum
signific
uest
semper
##andum
human
##min
cur
##endit
plur
##inc
ecu
dem
cuocue
##oris
etc
##gu
##ulum
commun
uidetur
miser
##ign
##tra
suo
##osc
uul
##pec
##iis
die
pass
eam
##aret
dixit
fer
uic
bene
##anc
##ales
speci
##dic
##ores
suum
rep
med
tim
christus
##antes
alia
solum
prob
mater
aug
suam
princip
pet
luc
diff
##rem
erit
##isset
suis
el
def
##ito
##odo
##iti
proph
##isse
le
occ
uos
aliud
##port
proc
##iuit
mot
inu
uerum
##og
##enta
bonum
dign
dilig
ista
cuer
cuin
##ationes
cuos
uscue
maior
tra
uti
ipso
lab
por
imper
io
don
##dem
disc
hon
##ann
##itt
##sum
omnis
eff
pater
corpus
##rig
fal
##aris
cues
illum
ceter
anima
obs
uniuers
sancti
put
adh
summ
mir
diuin
filius
una
##torum
##empl
sint
incuit
##ilia
uobis
##orm
ps
pret
sui
regn
ual
uit
substanti
##uerit
##rib
tempore
cal
##onis
##ulus
principi
##urr
sing
##bit
sue
duo
apud
##pe
##entium
##ill
laud
her
cuar
primum
##omen
ies
cumodo
dom
##ionis
##uere
dictum
##lius
tant
##enda
supra
##dam
neg
oc
##sus
contr
##ula
utrum
spiritu
sign
simul
domino
##ph
acu
seru
##ura
aliis
salu
##ust
##uper
##ios
natura
illis
##titud
##tie
##tissim
angel
indi
##tes
omni
##ulis
##ice
omnium
euang
diuers
prod
##ias
maxim
aur
hac
##erc
##umcue
ecclesie
##onem
ant
rom
hi
##oph
person
distin
licet
accid
##au
em
##inde
nomen
##uisse
gratia
##lib
##tas
mens
peccatum
parte
##urg
prius
##res
##ante
sacer
##erea
##atu
dicendum
##esse
##ea
facit
rel
secuitur
##ebant
not
sacerd
##acul
##si
##esti
illo
prophet
tua
episc
##aria
##ino
##uctor
terra
##alia
##eretur
oport
subiec
##ach
##icue
##ica
##adem
##modi
ciuit
##uci
prom
lon
aduers
ratione
augus
##erent
hanc
habere
loco
coni
eg
plen
secundo
ir
propos
##ibile
serm
fut
mut
##arium
hos
fuerit
demon
##abit
##tos
##ento
prima
cognosc
uerbum
multi
##if
patet
##reg
##ane
ueni
ipsius
phil
cul
lit
##ani
auctor
simplic
dol
christo
po
##cuid
ecclesia
mand
psal
arg
##uet
tur
pati
possit
domine
unus
bona
eadem
uita
illius
pul
uite
seu
fam
fieri
fit
##sa
##ero
audi
precep
##rim
uirg
den
##asc
scriptur
ocul
##andi
##ing
circa
##uam
ipsi
##alibus
hor
pertin
trib
exs
dominum
##eru
long
duc
creatur
##oll
ordin
adhuc
homines
##idit
iur
hominis
iste
inuen
##libet
nem
##edit
##ix
inn
##edam
##hib
parti
manif
debet
##duc
augustin
christum
##tiones
itacue
cuidam
##abat
noc
filii
dim
miseric
ur
dicens
##posi
huiusmodi
desc
hominem
ratio
consecu
##cup
exempl
mea
relic
conuers
au
test
##eti
##reh
omne
oportet
accep
##odem
perm
adm
iac
##isti
##fici
constit
minus
sacram
asc
##ugn
gaud
habent
tum
circum
diuina
terr
tempus
bap
episcop
dam
penit
cas
fecit
corporis
differ
##dum
ecce
nomine
iux
sent
iuxta
xx
possunt
facere
##oci
##ilium
eodem
cuedam
uide
similiter
anime
cuare
infin
ostend
iu
uin
litter
salut
iter
nun
forma
cuorum
uirtu
##anus
##plex
met
muli
ini
##emp
pac
##oribus
filium
##osoph
##enci
futur
off
misericord
philosoph
corr
uerba
##incu
fig
##sit
cuant
dilec
mundi
nostra
nulla
to
intellectus
alicua
##era
corpore
terram
mil
singul
uitam
sen
diab
lum
##abilis
##rah
sex
##itati
hominum
cord
nature
##ret
dicere
##ath
effec
##ric
consider
##erus
alio
inde
mali
##th
rerum
##ationibus
apostolus
##ario
deinde
##itudinem
memor
fidem
##anis
prem
##iii
totum
prof
##lus
beati
respond
uere
merit
infer
uiu
plus
##pic
exp
euangeli
facta
multa
rationem
aper
##uti
##titur
iude
##xit
##estim
##ebr
##atorum
malum
##cep
dico
##eper
##ump
fruc
erant
illam
##ates
benedic
sanctus
const
libro
desider
coll
amb
da
dies
uidelic
uidelicet
##ffici
humil
uno
ii
minis
nol
nim
##ne
rex
os
adi
cuamuis
satis
err
mun
lat
##atim
modum
actus
##ria
cogit
capit
opus
infirm
rei
hinc
gratiam
materia
hunc
manifest
potentia
accipi
stud
scrib
##lim
tuum
psalm
alii
exerc
fidei
##modum
sangu
cun
patris
posset
distinc
##ori
motus
appell
prep
##itis
ped
##lect
redd
##ora
inic
posse
can
od
offic
fug
deter
##atam
factum
affec
fin
succ
termin
##inam
cuic
##antem
##idem
pauper
reu
##itu
##antis
##ipi
att
arbit
preterea
obiec
accip
cust
naturam
pars
uera
cunc
##ros
locum
##erem
##umus
la
mort
maxime
spon
##prob
##ana
##antiam
intr
fide
omnem
imag
temp
animam
impl
the
##abitur
##enus
actu
opera
##rium
uirtus
##tific
##antia
meum
augustinus
pal
doctr
##ublic
##antibus
##anda
ue
##iet
relig
ing
lac
patri
forte
impos
##iones
anti
##uenit
decl
uult
spiritum
uenit
ipsam
ret
omnino
finem
secu
perp
alicuo
##icum
##itudo
##ulit
potius
ignor
##uert
plac
##eant
fund
ipsis
talis
##uta
solu
##pectu
rebus
compar
custod
##rag
elec
celes
cogni
preter
damn
uig
intelleg
grec
dicunt
terre
mortem
##etis
trad
##ile
extr
priu
tue
sor
alicuis
tamcuam
fur
pros
##ebatur
arm
##ific
iterum
proxim
refer
tertio
##atores
tui
tres
substantia
cec
##elis
lap
aliter
dici
##ano
caput
magna
prior
genus
alicuando
puer
##ibilis
bell
nostri
##lud
##aretur
gloria
delect
postea
##icem
specie
ration
compl
memb
principium
nou
tuam
##abili
##icus
##icis
corde
ref
det
cuat
dir
patrem
cuip
species
partes
##lia
disp
legis
precip
mer
urb
##gress
fuisse
inim
discip
##ilis
uerbis
iii
diuis
##anum
patre
##arius
ux
uoluntas
##rog
##uerat
causam
ostendit
##abant
hominibus
confess
##endam
##ast
##alium
alien
diabol
cuippe
regnum
##oni
##aui
public
##ebit
celo
miss
opin
prou
add
celum
uirtute
ues
inst
extra
##itudine
tota
pur
nemo
filio
##uisset
##cus
mortu
demonstr
necesse
clam
ultim
determin
senti
##osa
cueritur
suos
dauid
ioh
cetera
##abile
eiusdem
lec
##iri
conueni
diuine
##endere
fratres
##andem
soli
produc
absol
sumus
##rep
uticue
peccata
exist
secunda
separ
serui
amp
mala
corrup
multis
dur
scriptum
##dus
lege
dicuntur
##aus
##abo
medi
isr
subs
manus
legem
fides
##erant
sensus
sancto
##ung
essentia
idest
lati
##ulc
agn
sapientia
tuo
##idi
peric
isrel
ed
proprie
##unti
dep
diss
ext
ub
dedit
edi
appar
exter
genere
gratie
##inum
carnis
##ulos
iudicium
##tionibus
##esci
pred
ignis
firm
##na
##arie
##tare
##prim
perpet
##utus
dicat
partem
gloriam
cuan
nostrum
sper
##uent
ecclesiam
ens
peccato
persona
imposs
bre
testim
lux
##atos
ded
nesci
superior
recte
prest
sanctum
boni
##co
consec
factus
concup
interpr
nob
simpliciter
testimon
rad
sacerdot
##uus
turb
prud
mei
##fac
##estin
sacri
impi
multiplic
sanctorum
##ulg
significat
##issime
##essit
unius
habeat
##tism
##edere
trin
iohann
intenti
concupisc
##tud
nullus
meus
locuitur
##ones
cast
instit
templ
illos
##atiua
baptism
namcue
multitud
dil
interpret
alb
##admodum
cuemadmodum
ger
tan
##atibus
iub
acua
##greg
uo
##cia
##asti
iesu
reuer
inueni
epist
piet
tab
rur
lex
iesus
figur
##cuis
##la
mou
peccati
marti
mori
##ensis
soci
dicta
##xx
culp
sil
nullum
nostre
ueritas
##utum
##uir
trac
nullo
profec
##urrec
##ola
##imo
stat
noster
uerbo
##positum
male
proposi
cual
##ico
um
cruc
meam
##ule
mulier
finis
cep
##ort
##ereb
sepe
egip
##ipot
mundo
elem
multo
##amur
inicuit
resurrec
iustitia
potuit
pulch
dex
mol
uirtutem
##acu
heb
##aur
arti
essent
cuanto
celi
medio
statim
tribus
##atoris
manu
obseru
eas
hod
ueritatem
actum
optim
cath
scientia
immo
cuantit
##erint
##arent
orig
##auerunt
##inta
##pid
tancuam
##lis
interrog
formam
uelut
confirm
##itates
occid
unam
fiat
uia
##tat
plurim
homine
alius
cuodam
##iorum
edific
regis
recuir
uoluntate
##arr
coram
tanto
subi
clar
##modo
##atorem
isa
perd
##rus
dicimus
##amentum
denicue
##escit
meo
all
##lium
##abatur
uoluntatem
arc
conclus
domus
##ou
huic
consili
bonis
alios
numero
##ete
tac
cordis
##tiis
sola
septem
uers
mentis
##libus
##hem
deser
##erusalem
##issent
exper
##estr
##con
iustitie
##nus
cant
##pici
##asse
sacrific
ueritatis
propria
uiri
medic
effic
argum
##uat
alterius
##ciam
diem
mois
concep
mit
contempl
temporis
##amm
populo
##eles
nostris
##issima
populus
alicuod
mundum
suas
##cir
arch
melius
labor
here
##ende
fuerunt
##rist
impossibile
particip
##eritis
frecu
intellectu
ceteris
uirtutis
##itam
delic
##etus
son
signum
##ribus
salutem
gal
amplius
mortis
illic
ioann
felic
##ittere
diebus
consci
greg
##ulam
populi
plures
br
omnipot
cog
paulus
##andam
ori
prohib
obedi
tanta
inferior
bapti
morte
ore
rap
ces
merc
defini
sur
bl
aduersus
fem
crim
nego
propheta
##olog
##entius
##ena
##abiliter
##arii
longe
sill
ling
inuicem
##uetud
suscep
illumin
medium
intra
abscue
alicui
ponit
fine
grau
tran
illorum
diffic
pugn
##ines
adul
##ensi
mister
##ni
indic
isti
##ilibus
hered
consum
cam
##icam
dubi
tria
##inus
beatus
defec
##no
solus
hier
##arem
##ago
sustin
sancte
toto
##tiua
incon
populum
filios
del
capi
duplic
##ute
##istit
arb
conu
gem
locus
iudicio
orb
respectu
carnem
domum
uari
##etit
ecclesias
consul
uictor
abb
expon
##ech
##uium
uirtutes
ordinem
promiss
fon
##ras
tor
principio
bono
accidens
ard
dulc
inte
##arch
bib
propriet
abrah
primus
habit
multum
##isit
matth
##tib
toll
concord
aliam
speciem
##risti
lign
postcuam
solutio
intellectum
pun
##cumcue
numcuam
uoluit
nasc
occul
dat
faciunt
condi
tuis
prouid
minim
innoc
benefic
cuec
aux
subst
reuel
offer
##gredi
uirtutum
##tios
ordine
certe
##umb
duobus
coniunc
iustitiam
amor
accu
##cis
suffici
caro
uoluntatis
##uncue
alterum
##press
regem
uestra
cib
magnum
##ote
cess
sancta
ueter
tertia
##imur
cruci
alias
conced
potestatem
iniur
peccatorum
sollic
diui
##prop
uinc
##arg
tali
##pir
conting
scriptura
fuerat
pref
cond
##rorum
glad
congreg
ualde
obl
generis
lapid
anno
amore
##ich
assump
deu
agit
##posita
pecun
honor
##ecim
supplic
fort
carne
dare
inh
uiam
##icorum
ib
extrem
uener
consol
sab
ipsos
conci
cad
miracul
##uas
cuatu
proprium
iei
mend
alicuam
ieiun
angeli
char
##ult
proced
animo
##entissim
##trib
##ueb
sti
habuit
mente
##emur
rog
habens
isto
iure
eterna
pena
eternum
##emn
pauc
##cipit
##iret
ren
hodie
dicatur
donec
##aph
etsi
nostro
angelus
##eus
past
sermo
induc
##icos
conuer
design
ios
##esta
cuestio
coniug
pertinet
istud
apostoli
incl
sump
mur
uerbi
totius
merito
relincu
destr
orn
cuatuor
sapientie
affirm
superb
##cum
pene
cuincue
##culum
iacob
let
opere
mans
meli
erunt
##antium
preced
recipi
inuid
uidere
tent
fab
diuid
operibus
##ationum
uale
ele
##ensum
ingen
##ulorum
exemplum
##endis
naturaliter
##tias
beatitud
statu
indign
ultra
##ard
stul
fortitud
potestate
tertium
caritas
##crip
occas
fideli
sensu
##ins
incom
purg
##circo
corpora
particul
rationis
utr
##cipl
ador
mors
commend
##issimum
humana
util
##abunt
homini
gentes
uix
accus
10
suorum
nonn
contradic
bar
sensum
nut
dubit
lun
baptiz
oculis
nuncuam
pron
celebr
##ebantur
indig
##eas
subiectum
cathol
##ionibus
creatura
##erentur
suffic
ambul
inius
##mus
adeo
uii
sacerdo
uidit
lumen
##tissime
conuenit
discipl
der
nondum
istis
falsum
possess
recep
##pect
contrari
animal
declar
idcirco
bonus
und
##abis
compreh
decem
doctor
alium
peccatis
irr
petrus
##insec
##uerint
##entorum
tales
cuidcuid
summa
##terea
##tatem
propterea
trah
amen
agere
exhib
effectus
nomina
frater
constat
##ueris
##ares
prout
ueritate
##ax
##ittit
responde
alicuius
##eum
tandem
tale
##eph
seculi
domo
som
12
##uimus
uas
recip
consecuens
persone
nostram
reper
tuus
##ara
oculos
uelle
##culi
##iens
ponitur
septim
##ida
testam
prel
uindic
consuetud
possid
##uenire
mox
cler
##simus
iob
fals
##tica
capti
exis
14
estis
pan
intelligere
sanctific
faciem
glorie
infra
similitudinem
deuo
minor
spiritua
##estis
iustific
euangelio
congr
possumus
scire
##nis
dorm
frig
fuerint
trium
recui
exig
nota
noti
cualiter
subd
uolup
fructus
##anorum
##ith
cuibusdam
11
rursus
##elli
sanctis
uox
porro
habitus
##onum
misericordia
pontific
famili
tribul
restit
nati
##arn
episcopus
##abilem
infern
fall
perse
ciu
iustus
##culo
mundus
ualet
##anter
##tig
confit
animi
anticu
cuoad
##uisti
ascend
poster
ora
##ota
diximus
##entus
##ecuam
success
respons
monach
menti
contemp
fiunt
##istis
##rac
##encia
##ella
##ites
##endus
xui
uac
nub
antecuam
##tice
earum
##iunt
peti
imagin
preb
##auerit
##eres
set
redemp
uiol
mai
tri
substantiam
pap
consilium
utrumcue
horum
descend
istam
mee
xxx
disposi
persecu
habetur
##uiter
##oth
bonorum
solis
infinitum
ced
legi
arist
duas
cuoti
respondit
natus
##uxit
tract
##eribus
sententia
manibus
cuattu
naturalis
dixi
necessitate
glorios
poterit
abund
meis
cuandocue
substantie
adam
on
##uitate
##anos
aliorum
aus
facile
infl
datur
estim
ministr
perf
##eatur
elocu
cause
uidentur
abscon
##cula
teneb
collig
##acio
legitur
superius
ordo
##opi
##och
regni
flag
##cio
##iec
aufer
##ocr
sicuid
malo
uesti
numcuid
cepit
communic
coron
iug
partibus
sacramentum
##ca
imit
incarn
str
necessaria
##uia
##piter
15
philosophus
nocte
mare
locis
talia
uuln
cuattuor
primam
diuinis
testimonium
iesum
##atissim
he
cuarto
##enim
caritatis
motum
prepar
ipsorum
misit
pedes
amici
uoce
monast
annos
cuiccuid
minister
infid
##itudinis
##ationi
dist
iis
modis
##ga
##ueri
uocem
potestas
seruit
secur
acue
lacrim
etenim
sententiam
xii
obsec
##adam
caritate
diceret
essentiam
iudeorum
##esim
maledic
pari
effici
##ues
interior
obiectum
##num
sane
talem
sanguine
sublim
##exit
pacem
heretic
uell
forme
prol
hebre
malis
conseru
##atiue
inuit
existim
auctoritate
##tionum
susc
debent
presenti
sicuidem
incuam
debemus
filiis
##elle
alibi
uirum
uiii
faciat
membra
semet
transm
intelligi
humane
elig
penitentiam
gregor
scel
inclin
contrarium
##cie
predestin
paru
curr
declin
pas
uet
##rup
##ibili
tol
##ibilia
modus
narr
signa
ol
cali
##etum
mari
uirgo
superbi
necessario
##tamen
humili
aristot
##til
histor
##eth
##ese
celestis
##hen
cuncta
incor
manum
##inibus
parad
process
duod
perman
intelligitur
manduc
appeti
templum
##ma
contingit
umb
subiecto
cand
##atas
octa
13
##itor
doctrina
fortun
suff
##iles
eternam
cens
tang
scientie
maria
imperfec
repr
numer
usus
prouin
maiest
larg
decim
##issa
misericordiam
##ustr
abl
nud
exterior
##eta
excus
differentia
occup
retin
cupid
host
plura
##endas
salutis
gentium
pol
eleg
eth
accepit
diabolus
assum
fuisset
cura
##tior
idol
arbitr
obsc
sacerdos
adu
manifestum
pereg
##ce
paulo
figura
instr
pud
materiam
##tioni
integ
tabern
##lam
##abus
numerus
apparet
consumm
##emor
scientiam
cogno
totam
agnosc
tit
spl
##entias
concu
possibile
data
##ogis
temper
alicuem
immedi
iuuen
motu
poterat
exal
diuinam
explic
##escere
magister
##irum
##onibus
##hes
indiuid
confus
constitu
posuit
ire
##ebunt
scand
eb
magnific
pluribus
theolog
tenebr
presens
##biter
conuert
capite
officium
##etr
##ulas
euid
cop
cunctis
salom
imped
monaster
profund
necessarium
##tate
disput
uehem
annis
cualis
iudei
##undem
lig
##rio
expl
genti
maiorem
rationes
altera
prot
abraham
docet
##titer
ierusalem
nonne
eua
repl
uiro
##gen
comed
creature
##tiue
uiuere
##asset
principes
excell
ciuitatem
##ose
cuadam
##ingu
##abiles
due
penitus
confer
##tici
splend
##atiuum
ira
thes
##tua
nouit
imo
futurum
dixerunt
corrum
forn
panis
potentiam
tir
mensur
postul
nimis
credere
##itatibus
obtin
reduc
sanguinem
##unic
preterit
olim
duos
appreh
perseuer
igne
spes
reuoc
possint
flum
precepta
leti
ua
iuda
cuot
falsa
apostolorum
pror
##ho
attend
conclud
magist
ast
maius
immund
##ide
##andus
suscipi
##alitas
##eperunt
pleb
locutus
semel
##aribus
prophe
##abantur
ru
ci
##inas
sanctit
ignem
nau
##rimon
presbiter
mili
haberet
##abilia
nup
##abuntur
diuersis
moises
sabb
line
##culus
##iit
##utor
port
ciuitate
occurr
singulis
omnipotens
##iuscue
admir
remiss
sam
erud
primi
##red
ioseph
regno
##ponit
principia
rub
peccator
casu
angelis
diuersa
capitulo
##issimi
cuatenus
sepul
reman
##enis
nominis
religios
glori
##nam
pariter
seruus
pom
diligit
benign
##gressus
grad
lingua
serp
oblig
beat
ubicue
exh
cuarum
mus
cat
debeat
##ensus
sapientiam
hom
consilio
penam
talibus
uidet
iustum
##tii
cern
inuis
preu
patern
##iderunt
##eam
preceptum
honorem
cuanta
locui
fra
saltem
##ariis
##anim
dux
oratio
eterne
##ponitur
bonitas
pe
secret
timore
repugn
claus
na
##die
capitulum
acuam
dispens
necua
ier
incipi
percus
hora
mortuus
puta
memoria
constr
culpa
angelorum
profer
uim
simile
##eamus
##teret
fratribus
propor
operatur
copi
eandem
propositum
magno
##orsum
uinum
necuacuam
prepos
##iderat
contraria
infinita
dexter
inuenitur
totus
##etas
preli
cuilibet
exprim
##eunt
spem
##ficit
interim
peregr
##lo
uocatur
iun
uirtutibus
canon
canti
##istere
solet
similis
##uitatem
gentibus
mentem
probatur
uideatur
##omm
##acione
cuecumcue
##enum
sufficit
secul
##estum
minime
tempora
corn
euangelium
caritatem
excep
tristi
ambi
communis
agens
exaud
habemus
assign
incipit
datum
surg
crucif
multos
##ilius
nullam
adiu
claud
facti
sese
##alitatem
nimirum
clem
##rauit
##tissimum
lim
prime
diaboli
##uens
deduc
egr
pasc
##arentur
commune
ster
sacr
numerum
profecto
exemplo
16
potentie
sermone
##uri
respondeo
hieron
##ensa
asser
thesaur
sacerdotes
dissim
concili
consecr
##tinus
noua
imaginem
mouetur
patr
utra
adulter
habebat
##andis
sempiter
##ticum
##uatur
has
intus
iudicii
##onia
istius
ra
operis
##ileg
amorem
perfecta
materi
frecuenter
materie
##ertim
##ibilem
redi
rob
manet
propon
glos
heres
uan
##ande
##rahel
facto
##culis
distingu
acced
mob
nouum
##uto
luce
amoris
abstin
cic
compos
tempt
effectum
##ueretur
simplex
more
facul
nil
uxorem
nulli
blas
fructum
attin
mitt
##ceps
##issimo
crud
celorum
uiui
accipere
exor
nig
commod
scripture
ibidem
dicentes
animum
subdit
donum
utracue
sillogis
bellum
dona
##sis
pel
ge
solo
magnus
cuicumcue
sag
essenti
personam
interpretatur
approp
##issimus
uestre
presertim
##ies
ueluti
duodecim
pisc
attrib
cuerit
##acionem
origin
cupi
cet
cuarrag
actio
parum
asper
gaudium
##su
corda
futura
iohannes
ingr
##rix
communi
fornic
presid
fere
lud
##eperit
uersus
duplex
prophete
litteris
##iores
alt
uestrum
##fl
lucem
alex
procedit
iuris
precipue
##itatum
iudeis
morta
eris
naturali
ste
trip
flamm
##ariter
facie
plena
did
##dere
fed
obt
ciuitatis
pax
##inistr
##ene
immort
mac
prorsus
cuiscue
habitu
perfecte
conspectu
##trah
sacra
alie
princeps
imperator
composi
crucis
commemor
fulg
scripta
plane
sis
episcopi
##itauit
##tatis
imb
corrump
flu
obscur
##tores
pasch
intro
glorific
inform
##ilem
reges
uent
dicam
timor
gratias
barb
angus
##uitas
littera
liberum
intelligit
germ
persec
passionis
uideb
17
fidel
docu
franc
sch
opor
##bat
psalmo
patres
##eno
liter
##form
genera
##diu
##entiis
##enditur
resp
pietatis
dictis
transe
pacis
habeant
ciuitas
seculo
nolite
##idum
saluator
audit
depr
consecuenter
ascendit
##cium
hip
##atiuo
uiuit
##tiorum
aduent
##uerbi
defici
ulter
spe
cognitionem
lxx
doctrinam
##aciter
##tauit
noui
usur
##so
##osum
alexand
notandum
18
##otum
##inu
uigil
peri
matrimon
condic
uideri
istum
dirig
israhel
credit
reput
excel
sapiens
instrum
##ueniens
tabernacul
##osus
neut
##acia
consistit
leu
arma
audire
##ficere
cuesumus
confid
habes
loca
descendit
prosper
semen
uestim
##ellis
filiorum
diligenter
ordinis
possent
disting
uerborum
babil
##essus
regi
##uerse
gregorius
##ect
##utis
hiis
libid
scit
lo
procul
usum
eundem
indulg
uestris
##asm
misericordie
dupliciter
nox
consenti
bas
blasph
fau
accuir
mas
fraud
reprob
##icitur
##cuiscue
flor
##ustra
##uch
ioannes
bone
uenire
rege
honore
cuarta
uelit
passionem
luxur
unuscuiscue
causas
##ueret
officio
predicta
temporibus
sciendum
fieret
##enciam
sap
festin
alteri
peruen
uine
##uerant
##tura
##ole
gradus
19
spati
##etate
lam
uentur
lau
##turus
accipitur
pector
fron
ro
ferre
##tissima
adduc
spiritualis
##olis
adhib
huc
dicebat
cognitio
antic
iiii
neglig
susp
##ionum
20
##rii
##her
immut
##uos
##eps
panem
inuoc
mix
##uii
##picit
sat
papa
##etatem
paradis
##ecta
ton
perfectum
causis
habitum
matris
sanguinis
ez
discre
punc
specialiter
##ariam
##ubern
uirginis
meritis
uocab
iuste
resurg
uitia
##rie
milit
meritum
uiribus
blasphem
soll
##uitatis
malorum
##titit
abst
regum
repreh
condem
xi
##tinam
immediate
contemn
uerus
##cius
animas
ni
iuli
satisfac
proprio
##issum
euangelic
import
imago
poll
fidelis
inuenit
uniuersa
summo
tenet
##errim
episcopo
peccat
sang
facies
celis
cuoddam
urbem
concess
transl
mag
obli
nonnul
mouet
certum
relicua
diuino
aurum
propincu
card
fratrem
ampl
propriam
procur
oculi
bal
mane
##rexit
adiutor
ian
uidemus
futuro
exclud
paci
probat
##itos
##iuoc
##tiuum
cito
cuodammodo
##itio
horr
uesper
oppositum
fat
mel
##asci
animus
discipulis
utro
ueniam
corp
record
sacrificium
##ittitur
obi
uend
glossa
##ania
metaph
triumph
desper
interdum
aliocu
specul
conuerso
uisum
##iarum
angelic
auari
perfectionem
altare
leui
introd
toti
remo
amare
instanti
accipit
##eis
nobil
debere
##ela
##ordin
antec
defunc
celest
prouoc
turp
##acta
cuarr
argumentum
archi
passio
##ominus
presum
contum
ecclesiastic
##tissimi
accidit
##eni
utriuscue
media
satur
intelligendum
intend
and
21
auxili
monte
subiun
ostenditur
dubio
discern
tenetur
utrocue
monstr
##olum
legimus
dicis
diabolo
stip
superbia
peruers
petri
sanguis
foris
loci
percu
matrem
##icit
argu
describ
disper
speciei
actibus
affectu
uires
pace
secula
sar
##escat
##cipere
luna
eidem
##anam
habentes
uocat
arbitrium
zel
predicatur
apostolis
lumine
conui
maris
continuo
proximum
passi
illas
noli
posita
penitentia
pedibus
appet
uad
cuoc
ecue
dig
custodi
##euit
presentia
litteras
fortis
sust
amar
colloc
patrum
eciam
milia
##inth
exalt
mendaci
##idus
apparuit
epistola
proinde
graui
initio
statum
insuper
ueram
summum
men
uestig
templo
legitim
obst
excomm
fidelium
tuorum
nempe
##antie
libri
admon
##amento
regula
##eram
tuos
altero
oratione
ulterius
hierusalem
fore
frustra
cuelibet
appare
primis
feru
sursum
faceret
expect
ulla
opt
##ona
circu
conclusio
fideles
dissol
frag
fic
dubium
##alitatis
tirann
ponere
22
uolo
grat
magnam
secundam
tris
cuosdam
gubern
unitas
studio
li
interfec
##tarum
##alitate
constan
casus
cuinto
similia
doctrine
status
medit
orationis
desin
##enn
multitudo
recon
##umer
nihilominus
bonitatis
applic
eterno
##arunt
publice
##arios
educ
leges
anni
pu
##ptamen
honest
sacramenta
uerumptamen
excommunic
filia
peccatores
cognoscere
desiderium
nescio
diuinum
maxima
##cere
deos
superfl
erga
aristoteles
sensiti
perfectio
prope
passione
##amenta
torm
defens
auxilium
cuartum
beata
paul
fecerunt
mirum
corporum
placu
dignum
magnitudo
mi
circumcis
uulg
presump
humani
octo
##acon
pertinent
##endos
##peret
##ocin
##edem
tenebris
##uissent
utp
sole
##uunt
latr
ix
##issis
creator
uisus
nihilo
scio
dub
reuers
operum
uidi
plant
expos
impon
##episc
religionis
interc
incuantum
fecerit
sug
reced
##sam
propositio
##men
acuil
personarum
diuini
##mis
##ulerunt
testamenti
##entio
diei
recipit
unitatem
humanum
abscond
uiuific
memoriam
psalmis
exsist
##odi
##igen
##ximus
##utin
uirgin
inimici
afflic
imperium
triplic
summe
ultimum
##da
mandata
suspic
bis
sion
generatio
org
lingu
##iliter
conform
archiepisc
##aric
##iz
ach
intrinsec
astr
##uio
affectus
possum
perfici
bello
##ibiles
hil
fratrum
creaturam
uitium
altitud
semin
##escunt
scr
necessitas
##lum
animarum
labore
cuestionem
tex
essentie
exposi
secuntur
dolor
remed
minist
uade
eleu
subito
apoc
distrib
uideo
magnitudine
rursum
fiduci
duabus
immol
laudem
##pit
##tinc
diffini
usu
corrig
eri
castit
pulchr
incorrup
##ele
puni
postmodum
secundus
solent
crucifix
##arus
herb
term
uidens
transfer
##amini
##itte
predi
repres
credo
centum
moribus
fuerant
stu
mandatum
conn
marie
dulced
comment
prophetam
insign
socr
similitudo
euangelii
consens
##enam
euangelis
##fex
columb
conscientia
augm
adim
dispon
fructu
precepit
approb
extrinsec
nouo
lang
moisi
deprec
uiros
dii
cris
angelos
penitentie
naui
pend
23
litteram
sord
pharis
sermonem
##cil
##issimis
posterior
fa
articulus
relicui
naturalem
intim
mensura
sillab
adiec
dedi
condemn
ceterum
istorum
utpote
phis
dixerit
sati
##olam
##ilip
potens
addit
##atiuus
ponti
##tasse
inesse
diuinitatis
##cit
iussit
uirgine
##uiii
moue
represent
arbitrio
coti
lep
confund
cuincu
bern
cub
##ectus
presentis
malign
pertr
uellet
trinitate
libris
placet
reuert
album
xu
##elix
cuolibet
ezech
lucis
incuir
proposito
##hor
misterium
rationalis
##entiarum
mortale
supers
complex
resurrectionem
nascitur
castra
phant
##piam
diligere
##auimus
##oper
percep
##tui
##idis
corporibus
assid
express
fugi
itin
oues
##urus
foret
suauit
certa
communiter
camp
plurimum
antich
dixerat
magni
uestram
uino
sacris
eli
montem
##pn
habitat
passus
24
##posito
eisdem
##iali
pess
##ebam
intentio
incer
compet
collec
occis
compon
bonitate
arte
peccare
habeo
incred
uestri
initium
illustr
improb
luci
manifeste
##endunt
corpori
precipi
fini
actionem
cognoscit
##actus
perhib
alleg
haud
realiter
iudex
mach
uetus
##irent
##ber
##ardus
ingredi
agitur
ole
patitur
natum
decep
aperte
discipuli
moueri
prudentia
spoli
spect
nic
retrib
excu
annunti
dext
terminus
stare
scripturis
##unde
cau
mere
##editur
significatur
postrem
dicendo
dari
oporte
plag
exi
sugg
exercitus
ioan
##bet
insid
secui
indiuis
tuas
humanam
animalia
##ogn
creata
munera
dominica
hostes
trig
##idium
uideretur
hieronimus
aduentum
uitiis
multitudinem
descrip
dignus
regulam
ari
orationem
numeri
includ
continet
singula
formid
##gere
cuali
##pectum
nep
fluc
##entissime
malitia
cuamdiu
##inti
##timus
libera
increp
utinam
uniuersalis
ec
potes
profess
aures
personis
curam
experi
principaliter
##erim
affer
##erebat
cruce
pris
ere
##tuag
abrahe
meos
##par
fo
##atenus
##ices
testatur
##rex
certam
beth
genuit
exer
uiris
nominibus
##uorum
ambros
##amin
scandal
petro
iram
propriis
##aturus
philip
introduc
simili
terris
operatio
sir
depend
tribu
opinio
iuc
##erimus
fiant
breuiter
passiones
hort
absolute
unc
mille
membris
salus
pretios
subdi
bo
patriarch
partim
faciet
orbis
supr
uolens
apostolos
##ee
unitate
##issem
##ron
##oto
gest
opinionem
diuit
tantam
distinctio
pag
bonitatem
##ioni
cardin
septuag
multas
##eremus
uxor
respondendum
partis
salub
annorum
rig
access
conceptus
culpe
ueteris
cin
perduc
sanctos
direc
celestia
lignum
anteced
##iamus
institu
dictus
sepius
uoluerit
emend
pueri
sinis
diues
conuen
##udic
patria
armis
adol
##atoribus
pastor
maiori
contri
lu
demum
primiti
suppon
immin
acuas
defer
exempla
##auer
##cione
ihes
multe
scribit
uiginti
responsio
iubet
25
dionis
consor
fun
##torem
culpam
##rius
compositum
##issimam
melior
##cionem
dicto
inspir
auctoritas
positi
puto
plerum
archiepiscop
##pectus
emp
montes
iohannis
tul
cuamcuam
toler
libenter
debitum
plerumcue
recta
regul
dolore
uisc
utero
bes
moritur
##encie
cordibus
scripsit
precipit
uidebatur
##iorem
presci
libertatem
nouem
decret
accident
nit
xiii
##inos
singularis
faciam
diuiditur
pra
trinitatis
urbe
transmut
##eto
generationem
nata
intentione
irasc
iucund
positum
exspect
bonam
uolumus
cuandam
christiani
breui
deput
##otus
##etem
magnitudinem
cuondam
uisit
ueri
cuiscuis
copul
pecuniam
##pere
malus
similes
fortasse
##cili
cooper
periculum
##cueb
erub
stulti
dormi
mess
pauci
##ibilium
dierum
aliocuin
promp
sacramento
cuerere
ultimo
tradi
cuocumcue
tantummodo
##erna
suppl
mortuis
incid
##umentum
##elem
perfectionis
uex
##itibus
solem
nunti
festi
multorum
formaliter
ful
temporum
metu
cognitione
curi
ceteri
teg
lug
ine
##ensem
credimus
celesti
umbra
profici
##me
siti
impedi
saluatoris
salute
annum
##nas
romani
abstr
##do
respondet
##aron
af
##itatus
##ellum
##abimus
aduersum
artific
tempest
respici
doctores
mom
unigen
creditur
subsist
constituit
iudicia
ancil
illuc
pronunti
homic
potestatis
scripturarum
colleg
precibus
##atiuam
facilius
terrena
##urrit
desiderio
rest
##mur
perdi
premium
oppid
appetitus
##anas
uitiorum
fratris
tradidit
demones
egredi
delib
mores
allel
sinago
habita
inicuitatem
actione
commut
##endat
communem
deinc
faciens
deinceps
undic
rot
bonos
pern
uehementer
proximi
apostolum
poli
##crib
testamentum
uniuersaliter
inest
contumeli
iura
##usa
##enses
resurrectionis
##faci
munus
##tico
brach
sexto
refert
nostrorum
multitudine
gladio
uides
affectum
dimitt
petit
dicente
consue
##atic
ungu
cuantitas
rome
pauperes
pil
intentionem
hisp
morb
alleluia
pig
##he
priuileg
desid
ueniat
##auerat
egipto
ascens
lapis
celer
tante
sumitur
prophetarum
ueniet
repar
cuale
partium
baptismum
suffrag
undicue
idone
odio
auro
psalmus
augustini
necessitatem
##cuncue
episcopum
esto
adiuu
templi
gradu
##isso
##urum
##az
ipsas
##epi
iniuriam
redim
fati
paucis
beate
##ibilibus
operationem
tard
gratis
existens
nat
thom
latere
dilectio
latitud
uenerunt
semine
##aginta
tenebras
iaco
ierem
cent
sacramenti
pollic
adimpl
uncuam
testamento
defin
aliena
excit
ram
##aces
##mo
##ai
inconueniens
condit
sax
conueniunt
##itti
26
necui
assim
##propter
mortui
uocant
facil
tertiam
secunde
creauit
fiet
librum
lut
putant
tanti
intendit
percipi
inuesti
fidelibus
refec
##lix
incho
subiecti
nuncup
conson
calc
poterant
##turb
salomon
orbem
tar
##tigit
##raph
##uauit
##orus
##leg
angelo
dabit
##mon
solam
miracula
nostros
philosophi
iudeos
##osi
prouerbi
ung
missus
sermonis
humilitatis
ambo
isaac
imperio
differunt
adop
correp
calam
manifesta
theod
relatio
fortitudo
##serit
##hel
stell
immob
angelum
egipti
sanctam
##escens
cuiscuam
##ibiliter
humano
mulieres
resol
reb
antea
suscepit
debuit
ultima
obui
predictis
seuer
uter
appetit
cuestione
administr
magistr
suarum
auer
hostium
rh
inuol
integr
terrarum
circumd
concupiscentia
##andos
ic
appellatur
audiuit
consim
seculum
differt
gaudio
tertius
contrario
modi
seruum
corruptib
dignitatem
timorem
circums
resist
perfectus
cuiccuam
contenti
missa
oculus
etate
sacre
iudices
proximo
milites
iusta
##unci
belli
moisen
##mi
##oi
ueniens
terminum
septimo
##idie
27
protinus
transf
uon
tribun
##oria
psalmi
peruenit
celestium
ou
cale
perfecti
odor
puls
dispos
sacerdotum
rab
crucem
emin
sinc
exercit
##alog
oris
feria
amat
palam
him
##itudines
subditur
color
recipere
appropincu
constantin
ostendere
pelag
ecualiter
apostolo
merita
perueni
uenerit
contrah
diuitias
notitiam
moder
celestibus
auctoritatem
leo
implic
pren
sob
calum
##eget
sensibus
##ido
preuaric
urbis
##eperat
uerg
unic
les
##olas
dicamus
prefer
##ebo
ueli
ueloc
meas
nostras
cogitationes
precl
memin
filie
ioc
alteram
##tiuam
##abor
##itorum
fecisse
humilitatem
##aro
seculorum
plu
locuendo
cibum
fundamentum
abbas
cla
cong
28
greci
longa
modicum
##acionis
##uscue
significant
utitur
impet
impetr
sustent
fines
creb
senec
fons
profic
cuiuslibet
dabo
##actum
resur
mense
benedictus
pecunia
pie
generaliter
elic
patientia
cuapropter
apostolica
plat
edic
dixisse
hereditatem
parab
metaphis
dog
ignorantia
elementa
operari
decre
pape
lacue
reddit
fama
acer
nef
cognoscitur
personas
iact
turba
occidit
##ebis
coniung
continetur
gign
pertinere
mendacium
malos
differentiam
uil
sponte
trancu
inuestig
fertur
nutri
##imentum
##cr
##tiarum
ualeat
hol
xl
regna
displic
expedi
aaron
iung
maioris
reconcili
fecisti
fortuna
amicus
naturale
instruc
##bitis
heli
diceretur
##uius
uag
inuenire
spirituali
cuantitatem
foli
tumul
trinitas
sciens
matutin
uestro
generatione
##ecti
trem
##ecund
math
intelligentia
compell
29
uoluntati
##ticus
absit
tut
principiis
resid
hostis
uideamus
studium
francisc
effectu
creaturis
unumcu
respicit
periculo
difficult
incend
##illa
##onie
liberi
pauli
seduc
ineff
capitis
derelic
incur
tenere
uoces
inimicos
penas
docuit
competit
colum
patrie
humilitate
##toris
dilectione
dolorem
prophetas
plenum
##ostom
deorum
distinctione
habebit
destruc
fecund
##eriis
mulierem
reddere
dilectionem
etiamsi
assimil
##atius
recuiritur
##osoli
##itata
besti
etatis
diuersas
locueb
pessim
humiliter
ingress
lapidem
marc
soph
albed
accepta
digna
iunc
animad
parentes
##icas
reform
uast
summam
laudes
##tenus
uisio
uocauit
celeb
libere
diuinitus
dilectionis
cualitas
##itionem
##ge
pup
comparatione
maiores
spiritualiter
abiec
recol
figuram
##entior
sponsa
bel
##osci
dixisset
cuarraginta
deut
memorie
noctur
infirmitate
hes
temporalia
umcuam
uasa
##uol
bella
maiestatis
meret
iudicare
iuu
studios
depreh
##emini
##iora
liceat
##abilibus
phara
##turam
plan
laus
faciendum
nullius
##ors
acuis
inop
impugn
uali
##umenta
har
augustinum
pens
fratern
cadit
oleum
##ema
regule
optime
dicebant
forsit
##osis
agni
afflig
##endens
haberi
nobili
beatitudinem
rid
infund
fen
sapientes
insipi
definitio
lapides
dicti
##picere
deorsum
incorpor
##alip
composita
eph
##tissimo
iusto
notitia
##iderit
inuti
peruenire
dicas
alicuibus
corporalis
uias
anton
forsitan
depon
petrum
uie
##mina
##uistis
baptismo
inuidia
peregrin
arbitror
perturb
intellex
littere
unicu
publica
difficile
deuor
somn
aduentu
feci
corinth
supradic
signis
intellegi
cit
unicuicue
recuirit
neminem
discipulos
distr
disciplina
concilio
econ
preces
paradiso
factis
dexteram
simus
oleo
coniun
superbiam
##ism
rationibus
munere
fame
##eriti
misteria
utilitatem
desiderat
inser
singulari
sentire
fasti
exult
magnis
signo
##usc
uolupt
ueget
legibus
arguitur
resurrectione
chal
plene
parc
repet
obiecta
tub
confiter
consecuentia
testis
patribus
pane
matre
decimo
futuri
concurr
cod
hactenus
essentialiter
decet
abi
ingressus
euangelista
error
ueteri
comes
beneficium
##emos
uniuersale
##icio
ult
odium
gratiarum
cualibet
##essum
##ind
pond
grece
inordin
tristitia
##ello
acuarum
30
potuerunt
beatum
pietate
animos
ecualis
pontifex
mensuram
##turi
sepulc
eternitas
fideliter
positus
commo
matur
femin
##tini
penes
sedem
refertur
pic
aci
##serunt
errore
mortuum
inex
prophetis
##ticis
dilu
uester
##etatis
cuales
subl
##xi
##orium
spiritui
impr
hostibus
auribus
##ede
crudel
pietas
dextera
postremo
utercue
ueniunt
laudis
proper
##uero
magne
cotidie
ciuitates
meruit
septuaginta
sexta
humilis
cuotiens
errorem
suus
##turum
erem
ecuiuoc
prouinci
impro
inferius
placuit
comput
heretici
nauig
log
subti
primogen
predictum
exercitu
uultus
dampn
uident
sententie
pia
uisione
seruire
nimium
istos
laude
urg
accidentia
cuecue
steph
rus
##igr
uniuersi
confessione
saul
graue
uotum
defectus
uirorum
lingue
felix
hebra
sedes
deserto
coc
dominice
debita
##amen
noluit
fortiter
principem
##itione
sept
laborem
uirginem
fratri
lacrimis
uidete
celos
##igur
ueraciter
subiecta
iustorum
ministerium
prodest
uitio
presentem
tun
ars
suscit
pretium
##ellam
spatium
irration
prestare
detrah
##arit
prefec
subtrah
renou
dicetur
mascul
cuodlibet
##itig
ordines
psalmista
oppon
consist
principis
cuicue
##ren
diabolum
triginta
dignitate
##assis
##eos
principibus
continu
pauperibus
patriam
xxii
argentum
superioribus
crimen
dan
penetr
consuetudinem
cuero
##udum
soluit
gramm
fatig
ligno
formas
maximum
exerci
ris
##eantur
duorum
precepto
palm
cuotidie
parua
cai
frui
humilitas
##utio
xuiii
actiua
cognouit
elegit
deliber
antioch
artis
remans
hiem
##titis
remun
##tissimus
libros
mediante
interius
##ficitur
fix
credunt
gus
denomin
confessio
##imod
scimus
subtil
filiam
##mut
amic
seruare
generationis
cuinta
obed
matrimonium
prac
transit
honori
iniusti
sod
solid
##esto
scu
pler
humanis
egreg
retro
uini
##oniam
maiora
##pta
morti
effus
beneficia
habebant
distinctionem
##utionem
ecuo
clari
plenius
##ense
totaliter
isaias
##urb
len
pir
cuantitate
misc
perc
elemos
obsid
ueris
rectitud
regim
notum
eleemos
destin
deri
permitt
##lu
infidel
macul
nuper
infinite
uiderunt
uerecund
dissip
seruos
didic
pascha
odi
sacerdotibus
nescit
ecclesiis
uota
cras
perg
##esimo
digne
carc
##ubi
##ffer
supern
uacu
proiec
cualem
generalis
dominium
##uebat
parentibus
plenitudo
instar
##ellus
cass
circumstanti
apostolice
zach
##ibit
promo
perpetuo
apoll
timere
mensis
tib
exterius
letitia
addidit
magistri
conuenire
incep
refug
##ensio
oppos
##ual
respondere
reus
secueretur
ampli
##mine
optimum
secreta
inicuitas
remissionem
imput
martirum
superbie
dul
locuens
rud
priuscuam
dani
tulit
imprim
electi
extin
##uuntur
facis
conter
preceptis
arbitrii
uber
iniuria
usurp
persuas
linea
suad
cecidit
##aniam
nutr
similitudine
iuss
mentes
predicatum
impud
adip
efficitur
ade
sicc
tenebre
ecum
operam
uolum
singulos
exced
tip
opport
gradum
uirga
perpetuum
##ectum
intu
innot
auf
extrema
temer
##osam
circul
adolesc
uictoria
confessionem
frang
herod
cibus
exercitum
oli
posterius
uideat
deficit
miles
adiun
effund
historia
uariis
fabric
trancuill
genes
decor
plurima
exaudi
perspic
##ostomus
deberet
commin
terminos
##acter
ambrosius
ceperunt
defend
foras
nus
##nos
animalium
pent
faciant
socrates
##rarum
##isci
ullo
naturalibus
plenus
cuati
noctis
dignatus
mulieris
mouere
sta
laudibus
uniuersum
hir
purp
##erebant
amicos
late
femine
aduen
cueso
albus
incre
prouidentia
aiunt
auxilio
tradit
uidentes
31
comit
oct
##riam
##estus
reseru
exhort
##uad
##undus
detest
innumer
linguam
libertate
recuiem
##arias
##ture
opportun
erig
debeant
agg
christianus
cuintum
deform
##atore
appropri
taliter
gladium
pacific
interea
discret
##issus
minorem
##dom
cresc
debetur
##emin
continue
gaudia
pauca
detur
##ioribus
transire
fing
dogm
castig
perpetua
luminis
do
uisionem
pi
utile
inher
uestigia
##anie
beatissim
pann
cc
decern
beato
preual
##pis
pign
##uebatur
negat
itali
exord
testes
grauis
effug
interdic
officia
posito
credidit
carnalis
cuendam
sedis
distincta
mortali
##pex
diuisio
generali
scandalum
summi
prepon
magnitudinis
scandali
morum
sul
corporali
conuent
uana
##ripi
##icere
spiritualem
##imum
libero
predicationis
damasc
libertas
collocu
constanti
iuuent
fugit
proportion
mos
sacrileg
sede
entis
transt
holoc
##ensionem
##oso
haberent
uocis
docere
hodi
galli
prote
dilectus
dispositio
benedictio
##rent
romanos
onus
amplex
actiones
noctem
##ers
igni
expec
discipline
poni
##ordi
calig
detrac
gut
mercedem
pondus
nuscuam
exponit
absc
pertrans
##ecui
grauiter
ceteros
romam
iudicat
regina
##ties
consump
extoll
aa
##ellit
fus
ero
consensu
beatitudo
monst
offend
conscientie
genit
seruo
frug
discord
transgress
expr
aperi
obliuis
oritur
dedic
##positis
occasione
pectore
figure
repente
opprob
capituli
iudas
alim
occurrit
grauius
##acch
principum
sollemn
iord
ambig
agendum
pernici
murmur
rapi
arbor
spiritualibus
ossa
uniuersis
##idia
discrim
sermones
indiffer
antichris
uideantur
##aciam
manere
remedium
uidendum
infideli
conss
correc
##tiosa
dicant
populis
##imini
aduer
pau
gesta
exsult
##utur
mich
diuerse
##ensione
alta
lx
scribitur
sustinere
rogo
##eriorum
uigili
spei
sanctitatis
cibo
auers
##eu
designatur
proprietas
##iue
aduersa
##undum
cuiusdam
ostium
mortuos
indiget
certitud
caue
ubic
priuatio
sicuti
calendas
agunt
inimicus
cuac
immacul
credendum
occasionem
seui
artem
xuii
##pes
##icia
restat
langu
##elam
##culc
proprietatem
are
depos
habuerunt
defectum
alienum
prohibet
inan
proprietates
sacerdotis
##utam
simb
significare
mortuorum
negare
porta
dono
orbe
animalibus
agat
intrare
transc
cristi
inui
##udit
amicum
euacu
defl
admodum
inferno
##itia
oculorum
testimonio
ciues
eamdem
##rop
absur
##aculum
promis
ans
imperii
##oro
confiteri
pis
octauo
dignitatis
membrum
beatitudinis
taur
##eorum
puerum
factam
religione
ostensum
##iculum
##esset
uice
repugnat
uocantur
transi
ducit
philosophum
enunti
talium
cuiesc
inueniuntur
erroris
stup
comper
plato
cualitate
dicentem
##ebri
##toribus
determinat
cuamdam
episcopis
nullatenus
differentie
consuetudine
monasterio
infirmitatem
delectatio
confort
operatione
##illis
tangit
tabernaculum
infini
##ariorum
phantas
termino
femina
ferro
uniuersali
forti
hierarch
##acem
impii
reuera
speciali
hii
intelligatur
gust
##undi
litterarum
##andas
corporaliter
habuerit
antiph
inicuitatis
poti
irac
obicitur
perfectam
exim
examin
mortific
electorum
procedere
implere
cesar
precedit
termini
drac
demonum
consilii
##idam
remuner
amicis
ted
mansuetud
finita
ebri
prei
era
mittit
feri
posuerunt
date
fas
rum
miraculum
egress
##los
romanorum
##ecuitur
##uem
baptismi
ih
regen
premia
presentiam
auri
paulum
relicuit
ceru
pus
sentit
disciplinam
discu
certo
simplici
of
tal
spiritalis
inueniri
infam
promisit
holocaus
sapor
negleg
senatus
ioannis
lune
nubes
cli
maiore
tercio
allig
sig
nar
eccli
opposita
iudicem
discipulus
alicuos
subaud
##abam
cogitare
nullis
deuotione
communia
nosse
populos
mobile
##iturus
credentes
altaris
##idere
scrips
gens
##iem
propag
obedientia
##illi
popul
aduoc
##acti
similem
##olat
multipliciter
triplex
cuerunt
considerat
impress
scrut
festum
mons
##ancia
definitione
animalis
specific
scripturas
##atura
cognosci
sect
concludit
exemp
disced
obiecto
##fus
putat
##ticam
dilex
infus
latine
fonte
subiungit
articulo
athen
christiane
harum
anath
iniuste
constantinop
solummodo
permans
negatio
uenite
recus
##erg
##ox
ecuidem
32
considerare
heu
crediderunt
ueritati
sponsus
uulner
moles
##imet
element
capita
##issi
redire
##tere
capere
ente
horam
manuum
iudicis
secus
considerandum
rati
datus
daret
appon
##non
actionis
mouens
33
operationes
fecerat
distinguitur
facio
dilexit
succed
##etes
erasm
##mum
flumina
##alam
decipi
xiu
sortes
oblic
comprob
rectum
##olo
##ides
perfectione
mutatio
secuatur
patientiam
##amentis
abn
orationes
inhabit
euidenter
##ebitur
##cipitur
##ister
emul
expugn
carnes
catholica
trid
inferioribus
etas
exemplis
##amine
locuendi
iugum
consuetudo
addi
citius
ponatur
insin
nonnulli
accipiunt
religionem
conuersus
diuites
apocalip
sabbato
agente
diuinus
orationibus
probare
corona
putas
argumenta
placere
iugiter
pura
argument
honoris
pauperum
##cam
predicare
monasterium
fate
cualitatem
##olit
insinu
##erebatur
bonific
proceditur
diacon
conueniens
conscientiam
corrip
sufficienter
desuper
romane
uulnera
sitis
orare
soluere
so
dilat
insol
##dis
pure
inob
aliarum
alti
##atiui
sciat
christianorum
oppress
distincte
reuerentia
honorific
stim
cuodcumcue
possimus
precis
adueni
sepeli
longum
copia
illarum
clau
##rau
incorruptib
possis
minori
tantis
##acum
facias
fortitudinem
ath
dimin
cuasdam
secuenti
agnus
##atiuis
inimicis
regibus
allocu
singulariter
dionisius
conuertitur
locuebatur
crimine
sorti
protec
peccauit
creatoris
generat
sacramentis
sinist
unumcuod
mora
exul
ieiunium
conscrip
radix
egiptum
sud
coh
aspici
lucas
##aturum
unumcuodcue
gali
pla
prodig
occulta
exac
comprehend
epi
otios
regione
propositiones
hostem
aduerbi
esuri
testimonia
##cua
cultum
simulac
custodia
originem
ion
officii
##tol
concipi
regnauit
cuantitatis
uituper
##ong
abiit
audiens
coronam
domina
uestimenta
probatum
adep
recogn
necdum
##aculi
conclusionem
cen
aduentus
flamma
ligna
##onom
execu
deg
scribere
distric
detin
alicuant
uiuunt
cesaris
suscipere
finibus
##undo
predicationem
declarat
cicero
assumpsit
adest
interm
diutius
celestem
tend
altum
##onos
terrenis
recess
cualitates
ioannem
desideria
pectus
##eatis
uenti
chrisostomus
ponuntur
calor
auaritia
paradisi
reprom
uisa
abomin
militum
adiutorium
pesti
ecclesiarum
facte
agentis
membrorum
erip
##itius
hereticorum
regener
ner
paulatim
nab
##ebas
subiac
temporalis
labores
##abilium
egressus
monachus
oculo
tollit
##uarum
expedit
speciebus
exped
##uertere
petra
prosecu
possibil
missam
auid
sinod
constitutus
separata
conspic
catholice
##cionis
##atium
obiecti
conuertit
uec
odit
robor
clare
subsecu
ueteres
##oss
fortitudine
stetit
uideret
calli
sider
torcu
iuuenis
fratre
laur
scandaliz
##ligo
naturales
comparationem
##iretur
millia
priori
lar
mass
preterm
radic
obedientiam
spiritualia
circuitu
pondere
##amb
##entos
audiui
##ricis
titulo
##tissimis
surrexit
uultis
mira
romanis
philosophia
opp
tribuit
baptist
superfici
##ubstanti
fum
concilium
originale
fru
locuntur
spar
temporalibus
##uls
existere
confec
carissimi
identi
cursum
possessionem
infirmitas
torr
comb
##lem
extremum
ponunt
##iciis
##rehens
eiusmodi
diuisionem
inobedi
cru
##eras
anticui
##ostas
perag
nobilis
interrogatus
continentur
senex
hosti
ordinata
gentis
suprem
dura
domes
creatum
dissimul
##alec
sponsi
diuersitas
ignomin
asserit
ephes
supernatur
uictoriam
incurr
inuentus
reuersus
ordinatur
credi
consideratione
sermonibus
secuentibus
sillogismus
intelligendi
crass
##inarum
remitt
exclus
profectus
inferiores
eras
potuisset
consecuitur
iohannem
portas
luth
istas
scripturam
terras
grand
pacto
nouam
inflamm
causarum
indicat
relincuitur
samu
incuisi
modos
duplici
corruptio
adher
monasterii
sinu
abstrac
uirgines
pristin
act
nosc
flux
sepulch
pell
uestras
purific
doloris
beneficio
redditur
##emit
tenebrarum
consilia
greco
conturb
ga
longo
diuinorum
press
repell
hospi
mandatis
misericors
##opere
##utem
resistere
##osius
accuis
pontificis
calefac
pius
##egit
secuens
uerific
superiori
##abilius
designat
seruis
timet
##xat
temporalium
ministri
probatio
accipiat
currit
concupiscentie
franciscus
34
adiunc
audite
it
uictus
fuissent
responsum
donis
##omach
penis
nasci
##undam
absoluta
conuinc
demonstrat
cuatinus
diuinitatem
future
aue
##isses
arrog
obsecro
parentum
martiris
summus
laz
spern
redit
cip
trep
generatur
ecuales
esa
sacros
compunc
##ilitatem
accuisi
iustis
debes
##illum
uacum
ferrum
##perent
maced
egit
##tex
uniuerso
teste
derel
cher
intelligentie
gentem
meorum
##po
dicebatur
cith
peccatoribus
transeunt
benedi
merces
##ensium
propiti
stella
##lex
eternitatis
benedictionem
promitt
mortalis
##rh
canticum
fortes
sonat
ministerio
laboris
rup
##aberis
humanitas
timoris
xix
montibus
singuli
digit
eternitate
cx
commentator
contig
fortune
##issione
repper
sabbati
increm
laboribus
infelic
##iuimus
##set
remanet
opprim
preuid
humanitatis
cuestionibus
##uerent
opponitur
salua
noue
pulcherrim
present
pretio
eman
uenerabilis
utricue
auctorem
soror
grecis
ingenio
poteris
ecus
conueniat
construc
passim
ultro
dicendi
substantialis
chalde
##enso
christianis
solemn
agro
occidere
utilis
charitas
pietatem
##ciperet
##este
incarnationis
destit
locorum
humanitatem
metaphisice
existit
tes
secundi
##atori
significationem
##ricem
supp
ostenderet
itinere
intelligentiam
gehen
scriptis
singulare
confl
intelligimus
sufficiens
uniuoc
christiana
dato
entia
paratus
communionem
licuid
preteritum
exigit
triang
rationi
maioribus
gratuit
cuouscue
saluti
ecui
principali
exire
custodiam
duces
mathem
predicatio
inuenimus
negotium
mittere
ubicumcue
uiuens
##imento
creatorem
uultu
necessitatis
meretur
##nox
conser
habuisse
ezechi
uenia
abbatis
pedum
uxore
interfici
clerici
abscondit
arboris
##atorium
sanitatem
conuenienter
uoto
accom
nominatur
##atica
tormenta
potestis
principalis
pulchra
diuitiis
solius
conditione
fui
contradictor
iacobus
amo
pingu
uniuscu
coniuncta
constituta
prolix
futuram
cultus
arguit
ha
intuit
galile
contigit
predicatione
silentio
bland
acerb
iudea
ascendere
promissionis
deriu
arca
uitios
serua
dumpta
inducit
dumptaxat
preterito
cuest
fortassis
supponit
uisu
essendi
mutuo
carth
confite
clamat
fontem
circumc
meridi
singulorum
sacrificia
uolebat
##uram
dulcis
uictim
trahit
lup
peper
##lin
possibilis
suspir
mouentur
intrauit
altari
fortius
explor
nuptias
uniuscuiuscue
agric
impiorum
##ure
statuit
resurrectio
euch
creatus
cuestiones
##idisse
obsecuium
habetis
somno
cuincuaginta
iracund
repeti
presentibus
gladius
potuisse
periculos
disser
instrumentum
dot
uelis
##ecimo
idololat
panes
iustos
##imi
apr
epistolam
definitionem
cuancuam
uindictam
exinde
admitt
exspec
mortuo
##icen
secutus
officiis
prelati
obnox
cuicuncue
similibus
contrist
utram
diuinitas
duce
diis
idola
alicuot
fet
##met
uiderit
philosophie
incommut
nominum
preiudic
dimit
accedit
canc
impedit
plebis
antecedens
duxit
##esima
cuacumcue
potuerit
obedire
confug
##corum
habitare
petere
calumn
occasio
gratul
inuenta
corruptionem
appareat
committ
##uris
creaturas
uideant
##ueh
superiores
significatione
faciamus
mediol
muliere
dispositionem
magistrum
reci
care
appellat
trinitatem
montis
principii
pluui
spirituales
##iosa
consurg
religio
xli
intellegitur
##utione
##olus
malitiam
fiducia
##ima
premissis
castris
uolentes
eternus
diligunt
oculum
psall
acti
uidimus
ros
distinguuntur
uoluc
studiis
flagell
##uerentur
##ueritis
accui
stelle
nuncuid
thomas
etatem
foue
inebri
##ilitas
eosdem
ascrib
concupiscentiam
sto
perpetr
oporteat
mentibus
salomonis
impetu
uenisse
##xerunt
hospit
poterunt
##une
inse
recepit
inferni
incolum
incomp
delincu
dupl
constituti
xxi
uidebitur
ite
ecualitas
negoti
andre
iratus
estote
bou
cuietem
dicentis
detrim
intrinsecus
##rice
##eda
##illam
##osolim
##elmus
regnat
tet
##aciones
essem
pecunie
erubesc
carcere
exemplar
decus
alexander
##ilio
testi
baptismus
medicus
##uali
inclus
aris
ostendens
edoc
##ensam
cuartus
##edum
accessit
euit
suppositum
cup
casum
dignitas
suble
mistice
attende
instituit
##itatur
pall
operi
imperatoris
cathed
immod
uinculis
leuit
reperi
##umentis
relicuis
terminis
christianos
##entissimus
breuis
comparatur
miserere
dextris
cuand
relicum
promissa
insidi
impot
miseri
principe
participi
39
profit
desol
lacte
peculi
aurea
adesse
occur
##itura
##timur
cherub
faciendo
zu
regia
lub
resurrexit
uocari
temere
crucifig
ueste
##riter
scis
probari
ducem
##efac
audiunt
odorem
nesc
inicuitate
tendit
uiscera
intercess
aspir
##assent
cursu
libertatis
##rica
##xxx
fortitudinis
cuodsi
dicet
lamp
40
corres
regio
pastores
progen
deest
commis
debit
respondens
manifestat
diuersitatem
pand
sacerdotem
sib
facimus
naz
aliunde
##ulerit
ignorantiam
magistro
digni
suppos
prudens
auc
pert
causat
thr
38
populorum
literis
utuntur
mirabilia
bernardus
radice
menses
agno
contro
natiuitate
uelim
caret
##abitis
alto
cognitionis
liu
##tatur
interest
dedisti
concub
##ibunt
isaie
romana
uerius
##amina
##retur
##cui
minoris
portam
locuor
gaudet
lapidibus
silentium
phantasm
acceperunt
predicatores
grecos
optima
habentem
facite
gentiles
obtulit
facultatem
##angeli
actuum
oner
uxores
plor
calicem
atting
spirituale
recens
hipostas
percuti
utramcue
##actis
enarr
percuss
infernum
##tag
oriente
zelo
predicari
desertum
mech
calore
amico
excess
dimittere
sufficere
controuers
prodesse
conuersi
##titerit
uocibus
35
##ramus
sorte
contingere
mariam
fle
euas
simplices
episcoporum
##imenta
prost
debito
gab
supersti
36
##iste
cuestionis
animis
facili
falso
reuol
muneribus
latus
prescrip
lumin
dederit
procre
operationis
motibus
prophetia
##ecost
semina
fronte
contemplationis
tribulatione
martires
dicantur
segreg
diffus
explan
fom
singulas
corrumpitur
additur
ignosc
medicina
cuesi
nolo
auctore
euangeliz
obliuisc
citra
contulit
##ecit
sensitiua
sillaba
animabus
tuarum
priorem
ducere
plang
gratum
##utos
cecus
offerre
profundum
penite
eumdem
eucharis
##erito
domos
beneficiis
ueniale
delectationem
domi
##iore
amicitia
morem
producit
denunti
accedere
nimia
stir
tripliciter
inep
compass
militibus
pharisei
marg
futurorum
sedet
uniform
##idos
dictam
feb
eterni
electis
illust
ulc
insidias
aperuit
conceptum
meriti
sensibilis
uniuerse
interp
denuo
febr
esur
prestat
hodiern
potestates
natiuitatis
consc
rationali
xxu
uoluerunt
elis
inferiora
plericue
az
refrig
##icie
argente
ie
tertie
potissimum
dioc
defectu
later
delec
mensa
##acis
diffin
iouis
correl
archidi
##idio
prouis
prioris
molli
dispositione
basil
cuamlibet
##bant
eternaliter
relationem
mutatur
hebreos
nonnisi
##enes
simplicem
multiplex
alienis
pericula
dudum
correspon
neutrum
supposito
obedientie
potui
propositionem
instituta
faciebat
honores
reddidit
phisicorum
plenam
irre
corripi
commix
conuoc
compati
orat
##tino
principale
referre
locuimur
##org
fueris
negotio
germin
pentecost
rationale
derelincu
##uig
uincula
##enos
oportuit
speculum
gloriosa
appetitum
excludit
hebr
manifes
cueri
promittit
existente
##positionem
augment
licu
sacro
##bium
locuar
confessus
dicemus
dicitis
abbati
lacrimas
uiuo
##lorum
elementorum
deitatis
uulgo
hereticos
persecut
##aculo
conual
pse
potenti
ecclesiastica
conculc
xxiii
prudentiam
intelliguntur
generibus
specta
##illus
opinione
iup
##tari
hen
##ecue
##cuit
excedit
##tissimam
pugna
saluatorem
##astis
diutur
respectus
maximus
formis
longius
cuecuncue
abstrah
augmentum
marcus
predicto
proh
conuersionem
pelagi
tep
##cem
uocatus
porte
corporalem
impius
ualent
stric
presup
prouincie
rug
##positio
elementis
sodom
misere
conduc
ingenii
efficit
extrinsecus
licentia
seruitutem
facienda
cuartam
insepar
##teretur
dignetur
plate
uinea
matri
cuantumcumcue
ratiocin
uestros
##itarum
sonus
raro
##enas
cogitatione
deh
saluari
firmiter
urbes
##domad
casibus
mortua
ingenium
leonis
electus
sensuum
periculis
malitie
imagines
iosue
##tore
tenuit
far
infr
seruat
integra
directe
uom
##umento
##angu
antichristi
rite
pronomin
##ioris
importat
flos
dicte
37
##enorum
ecuis
deneg
opes
simon
diuitie
absor
repud
##amenti
robus
manich
maneat
commendat
interual
posc
excec
gracia
fructibus
dicerent
ihesus
uenus
peperit
famul
fuga
diuinarum
luxuria
sata
salutare
contemplatione
imbec
recuper
uscu
ignorat
muni
sextum
cetero
corruptione
crimina
materialis
ping
sufficiat
passionibus
furore
creaturarum
stren
plenitudinem
proprietate
romano
permittit
anx
intellegere
nauis
corporalibus
phe
proxima
diuisione
diligentia
benedictione
erudi
prouincia
suscipit
certi
lin
gaudere
eun
dependet
##ecr
conuersatione
uetust
isid
##ficiorum
##obrem
##ilitate
##inn
ortum
sumpta
militie
edictum
sidera
impend
palp
##iciam
fallacia
demonibus
inicuitates
meliora
decima
fiduciam
sid
decimum
arom
rectam
uiuentium
feliciter
sinagoga
percussit
prauit
recto
continua
cognita
uenturus
lasci
deliciis
crimin
lepros
trop
roma
generi
tel
secuti
iudici
familia
pseud
moueatur
cuidcuam
##xerit
munda
diligentius
obd
illuminat
proponit
tantus
patiens
utilitas
inecu
stomach
clarius
significatum
saluum
captiuitatem
accommod
petram
cuoties
ortus
calid
commor
sexus
carthag
nomini
spatio
oportere
alieno
largi
arab
cueris
intellectualis
centur
cuies
uocati
notatur
impati
uisionis
mensam
integrum
uenisset
origo
##acto
oscul
inuenies
pomp
prelio
corneli
scribe
extendit
legum
efficiens
credentium
adiung
##ll
specierum
uiuum
minores
sponse
##orta
##illo
cornu
nono
firmamentum
clara
apostolicam
acceptum
colore
teneri
lucern
tro
conuersio
impiis
inconueni
superiorem
audiuimus
intelligunt
carnalibus
accidentis
xxui
concordantia
rip
##des
cuamobrem
agri
cert
mulierum
##athan
uidebantur
consecui
amph
proprii
uiuendi
conuerti
tenent
octaua
seruorum
plenitudine
aperta
aust
led
nascuntur
beatorum
exeunt
incuiet
orient
##ace
septima
theologia
intelligens
propositione
particularis
lxxx
palli
incomprehens
##iori
monachi
babilonis
uor
##fr
pontificem
accept
mercur
infideles
inuidiam
##entu
exclam
conuersationis
marci
consangu
alicuas
superioris
hereditas
bibere
##uxerunt
impar
confitetur
necu
immun
doctorum
##urs
legere
prelium
principiorum
episcopos
expell
electos
cubit
salutaris
miseria
nolunt
infinitam
perinde
accipe
rhet
##ps
constitutum
excipi
ingens
superest
labia
sacramentorum
finitum
##uerem
sedere
immerito
grecorum
cohib
malam
superiora
extrane
ferm
mulieribus
##ucid
dulce
proficisc
##ingit
uaria
##iamur
##culos
producere
apprehend
securus
dant
altius
dextra
uoluptatis
decip
dele
miraculis
sph
facult
linguis
ferunt
inuenti
misericorditer
conceditur
scientes
industr
testific
extermin
crescit
deuter
undecim
serpens
esau
##issimos
significet
timoth
lectio
naturalia
sacrum
meritorum
indiuidua
desideriis
contingat
litig
coniec
gente
misterio
maximi
sanctitate
dolo
geniti
age
principatus
recuis
notat
perficitur
septimum
##frag
puero
paruulis
precedenti
pisces
prudentie
plebem
cot
lax
##gi
perfectius
publicam
oporteret
consolationem
operatus
iubil
recuiesc
precess
liberos
silu
obr
literas
asinus
uenerat
extend
redund
iner
##uerimus
conuic
cultu
uigilia
##uendum
liberis
##hr
facultas
##antius
superne
inimicorum
uestibus
omnipotentis
unitatis
##tori
licitum
medii
confessionis
reuerentiam
agrum
carnales
fugam
auditum
flores
adiecit
##crut
latet
facin
ueniret
uiuat
pedem
altitudinem
##chis
relax
##utionis
uineam
##etam
caud
intellectua
indiuiduum
recessit
despici
inced
##ert
cuor
teneatur
uerm
cogitatio
discipulorum
extor
exitus
attest
diuitiarum
reperitur
clarific
rationabiliter
hostia
##anea
tenentur
deitas
necuam
##ades
sabbatum
##acium
uxoris
41
errores
imitari
predictam
lapide
flumen
assidue
exprimitur
##ept
assist
argenti
difficul
dices
determinatum
iacobi
beda
##temper
saluus
audiat
lect
facerent
lacer
propositionis
respectum
spectat
bestie
cuiuscumcue
consueuit
accepimus
##ocius
obstin
canis
##ons
##ectitur
cuemcuam
audita
promer
letific
cuesiuit
includit
perdit
terrest
historiam
nex
predicat
exsecu
occulte
seren
cueratur
##iose
lucrum
recognosc
##ensibus
horas
deuotionis
sempiternum
frecuent
cornua
locuatur
sortem
cesare
foro
accipiens
aduert
pauperem
fata
##unda
caut
communione
origine
xiiii
interitum
uulnus
ciuium
obliui
crucifixus
habund
annus
insens
##cuidem
luxurie
describitur
narrat
ba
subiungitur
##itiam
totis
humiles
pale
eram
manens
soc
ferri
cadauer
alterut
tus
passiua
puella
##esimum
carnali
industria
##idas
aristotelis
imple
felicitas
potum
calorem
dimic
sperare
regr
dixisti
ponam
intelligat
pede
arri
alac
claritatem
uoluptatem
##bris
iudice
missi
ausus
moli
situ
iohanne
omnimod
mitte
proprias
scelus
geneti
furor
cuincuag
pes
##dal
##xerat
minimum
##uebant
adecu
haur
sensibile
uenientes
ostendat
stet
dolores
mancip
denot
albedo
exempli
paruum
genitus
correspond
lanc
remou
remota
##entissimum
seruitute
##son
afric
pab
##itr
augustino
studia
predicti
beatam
nor
plaga
congru
##aueris
philosophorum
dederunt
presta
uesc
patiuntur
peccandi
sensibilia
saluos
eur
uelint
colorem
supplicium
scrup
certus
ipsarum
ai
auctores
immat
intellectui
prelatus
apocalipsi
dict
##entissima
adiutorio
famam
christe
infinito
pp
electionem
substantiis
iuuenes
sanitas
innum
beatific
maximam
ubera
paucos
mirabiliter
##itare
splendor
##omet
fierent
adulesc
oportebat
combur
distantia
prophetie
tristis
pulc
exiuit
acceper
oppugn
comedit
nosti
dimitte
duplicem
robur
heredit
cogitationibus
##hof
paululum
inimicum
processit
cognoscimus
##ecto
proximus
cuorundam
sumere
prioribus
paradisum
desinit
castitatis
legit
uoluntarie
ambulare
##odonos
perpetuam
tullius
spirituum
pulchre
amicorum
credentibus
cualia
##ectis
leua
disi
surge
uenientem
certamen
generare
inuisibilis
priores
babilon
amitt
naues
turr
absolutum
meliorem
contentus
specialis
columba
liberat
hel
aure
contrariis
cereb
tactus
recipiunt
incuiunt
maximo
descendere
respondetur
charitatis
carb
dabitur
profectum
celeste
discurr
fugere
mortaliter
##ischof
nominat
beneuol
damnum
##icula
uergilius
acies
amis
character
cupiditas
cibi
uentum
##mate
charitate
abstulit
##hab
conspici
intellectiua
thess
cualitatis
sapere
irrig
permanet
##ulisse
##ulsus
reser
stans
nouerat
laudare
imagine
heredes
distat
facientes
diac
##iturum
moralis
##acius
ceper
infirmitatis
fenum
##hi
comedere
impetus
uultum
minima
numeros
affici
##odonosor
intem
futurus
medioc
arbore
trec
conferre
unicum
thron
abundantia
similitudines
cursus
diuersum
scripsi
referri
sacerdotium
pompe
argento
custodit
crem
diuersos
##empn
##uebantur
perire
crux
intellexit
redeunt
romanus
demonst
retinere
ualeant
aduersis
peniteat
positis
premissa
possim
dimis
illec
consensum
pluraliter
trag
coac
dentes
retrah
intelligibile
prostr
suscip
impleuit
societatem
uicin
uespere
contingens
formalis
hebreo
##iculo
uidebunt
uicissim
fontes
habeatur
temporali
maiestatem
incess
elocuia
stipul
uideris
ordinibus
simplicitate
macula
claritate
ianu
##all
cain
cuerendum
pueris
sagitt
ceperit
hereticis
estu
assenti
iusticia
sagit
possidet
peta
mandato
procedunt
amicitie
exitum
componitur
uestis
##ting
causatur
conuersa
dialec
necnon
fors
indis
hostiam
uellent
differentias
##uertit
iusticie
concordia
cuandocuidem
concedo
influ
##cos
acta
parag
gentilium
accipiatur
buc
lumina
mentionem
incarnationem
ieron
perficere
clericus
ber
cogitat
ministros
fedus
##untia
legitime
stellarum
presente
sinistr
seg
cipri
festo
auditus
grammati
prisc
audientes
easdem
attingit
comprehendit
uocabulo
exercituum
##ophil
opiniones
pestil
precipitur
expositio
unio
pretere
infert
condicione
benedixit
precepti
unionem
incuiens
##tamur
stabil
tumultu
seruitutis
nefas
cil
##iciunt
ecualem
dans
econtra
ago
cell
sciebat
perfecto
idolorum
pactum
uentre
superad
uitis
publico
sibimet
sali
despon
uiuentes
possidere
uoluptas
grata
uicit
sacerdoti
##uantur
##tinum
sollicitudine
bi
##encium
nobiles
proteg
subtr
##alon
prudenter
##iat
enig
contend
recre
predicte
coloris
sacrament
carni
##mata
diuersi
paruuli
heresis
paragraph
gess
prer
labiis
ingenti
hortatur
habentibus
significans
oblitus
fauc
ethio
euangelica
necessariis
##abas
ecuos
substantias
exceptis
ihesu
art
fecisset
stultus
dor
affic
situm
exercere
ductus
exit
potentes
ualere
cupiditate
leue
ceci
escam
peccatoris
credat
abus
seraph
aspectu
##auerint
artes
preterita
negatiua
disponit
ignob
raim
##tiuus
##iosus
aggreg
fundamenta
catholicam
maiestate
caritati
ducis
principatum
##acula
##decim
spiritaliter
terminatur
coher
gar
exprob
##atorio
neb
anticuis
tabernaculi
amm
mandatorum
iuramentum
##cemodi
max
##ueniat
regionem
mandauit
presbiteri
sempiterna
cels
perdere
congruit
sumptum
analog
istarum
locuti
inuas
consensus
uinculo
uentris
reddi
eunt
egrot
##entii
maiorum
imprud
secre
delectatione
excepto
##epl
nihilum
secuentes
liberauit
demonstratio
prenunti
##ertus
certis
arbores
sedens
persol
uniuersam
##itteret
ouium
frigid
uert
##uiis
sciunt
diffund
determinata
lunam
accepto
multitudinis
aurem
historie
permisit
pericl
entit
apparere
arcam
orientem
propitius
##ibilitas
calumni
cuiete
dominis
ammon
agimus
utris
erimus
enumer
uictorie
patienter
manna
contrarie
italia
credid
morbo
circumst
societate
renunti
familiar
metal
coniunctio
euangelice
oppidum
##acus
##aturi
nititur
letitiam
castr
bibit
induit
mirabilis
possessio
totidem
cupit
actiue
idus
uirtuti
##item
dixerim
cognoscat
idolat
flex
inferos
italiam
lass
##orice
plurimis
melle
modes
##limus
scor
pudici
compositionem
numeris
clericis
conditio
monachorum
uentus
presentium
ostendunt
substit
predixit
cuanti
##ularum
cuiuscue
lumb
tercia
filias
moab
discess
sapienter
matrimonio
fluctu
expresse
42
sinistra
imperat
completa
##ensionis
ueneris
thalam
deuote
paternitas
agendo
dimisit
damascenus
fecimus
compositio
obuiam
hierem
opprobrium
benepl
inuenerunt
##tina
##onius
persuad
uicem
felicitatem
pub
tacu
##icibus
candel
contrarietas
gel
eternitatem
abhor
delicta
cure
dictio
infelix
romanum
nouissima
breu
mic
cadere
sero
defendere
##ingere
confirmatur
columbe
dens
creat
finaliter
eneas
aues
perdidit
beatis
cogita
experientia
hercul
ignorantie
uincere
tela
extitit
naturalium
ageret
errare
plebs
inanis
sensibilibus
ose
titulus
negant
##arc
idolis
referuntur
tabernaculo
proficere
##pum
sponsam
communes
superna
auditu
diuisa
cuerens
plurimi
sacrosanc
##ancue
ceteras
predam
combus
uenturum
uadit
gu
metus
initi
unanim
commemorat
teneat
relatione
priore
paratum
tristitiam
##onium
hebrei
participes
##culp
imperatorem
hipot
spiritali
instans
testimoniis
indignum
successiue
pete
nouimus
publicum
##ricus
intrat
utriscue
cuietis
ciuitatibus
ccc
procedens
uenenum
uocabulum
huiuscemodi
daniel
innocentie
curia
mensibus
regulas
##mos
subter
##itie
cicer
traduc
electio
uento
uendi
monet
innocens
satisfaci
ornatus
baptizati
uendit
confr
##tibilis
##ulisti
ierarch
##pexit
extinc
aduenit
epistula
trunc
diuinitate
regnare
condign
diiudic
uitare
deleg
calidum
sugges
locupl
uictum
relationes
custodire
fran
sanctitatem
precise
continens
carnaliter
interrogata
abel
conflic
criminis
familie
respice
arce
prodit
commiss
orta
continuum
bernard
##uetur
##ogit
##eros
peccauerunt
dummodo
rediit
licentiam
consiliis
aliocui
contex
ceterorum
impium
audio
##titerunt
inueniatur
recepta
naufrag
celestes
diuersorum
mobilis
claust
particulari
praua
nabuch
assumpta
##enz
pith
scin
iuramento
metrop
xxxii
##issimas
##umbr
erump
clamor
olei
euad
mortalium
##uendo
cuiddam
humanitate
attamen
attenditur
benedicti
mattheus
sterc
medul
cantu
realis
exhibere
punctum
cuiescit
fil
sacerdote
conuersione
satane
tecta
##oram
astra
meminit
sonum
acuila
infirmus
custos
uatic
##ograph
personaliter
diminu
ruinam
ortu
nemini
uidetis
nubibus
incuin
imman
intelligendo
diligat
ueh
tradita
triplici
##tiuo
opul
nesciunt
cessat
uoli
impass
impedimentum
temperantia
archiepiscopo
opinor
accidentibus
spons
manducare
supplicia
##sibus
strep
leguntur
auferre
##temus
summis
uiiii
portare
appellatione
moll
##raim
pasche
mittitur
ueterem
connex
ew
legati
locueretur
aperit
cogitationum
parui
uincit
cotidi
moueat
passionum
persecutionem
sanctu
genu
clericorum
hast
##ardi
habebunt
appellant
occulto
incipiunt
obtemper
nouus
##iua
ceno
carere
papam
purum
predestinatio
insinuat
nabuchodonosor
inferiori
exod
eternis
cesari
pretor
instrumenta
recurr
habentur
decorem
iudeus
confirmat
precedentibus
flect
petis
##ala
alicue
innou
postulat
accipiendo
canes
obtinere
fastid
##uerim
fasc
infinitus
agendi
claritas
uersu
letitie
nobilior
mitti
sententias
cuantus
delictum
cuc
muros
pectora
remissio
ieremias
perficit
determinatur
##ipsum
demonia
das
conditionem
subici
salui
latius
hoste
cibos
instantia
##las
proprius
subiectis
nolle
alieni
uidebit
##positione
deficere
common
uisibilis
##adis
uapor
lauac
potus
contemptum
superbus
43
uestem
ancilla
colligitur
cing
altissimi
xxuiii
prand
##ficie
beatitudine
floribus
electione
ignorare
redemptor
consideratio
ultimus
auster
hereticus
barbar
fluctus
scop
iusticiam
desiderant
pone
relicta
gregem
confici
predicantur
cognomin
ualenti
sponso
uenient
clementia
##turis
indicium
troi
penet
generale
intellecta
necuit
seminis
instinc
appellantur
christiano
offici
seorsum
##umenti
cognou
uirgilius
##acl
animali
placitum
interiorem
concilii
periur
exsurg
lectum
cena
##ecess
artibus
charitatem
gloriari
racione
religiosi
fe
##cub
genua
indur
uiuus
angustia
mitis
iudicum
mediis
occisus
diaconus
eug
##cii
angelica
facinus
formarum
preceptorum
affirmatio
##ilitatis
menia
confestim
patientie
rebell
##rici
##ebimus
##pio
cuemdam
plurimos
protulit
exag
affl
gn
tactum
sinistram
##err
resta
legatum
inuic
nigrum
mirabile
horre
ordinate
accidere
datam
recit
uotis
peius
patrocin
refici
apte
interiora
naturas
class
auctoritatis
decimas
cadunt
capac
sentiunt
incidit
##itul
originali
sempiterne
perit
capiti
commodum
immortalis
dulcedine
##hn
preex
reluc
implor
circumscrip
##acie
aciem
fuere
cuiescere
intelligibilis
uenter
puluerem
conuertuntur
fluminis
negationem
mendic
illus
inferre
ceciderunt
bos
ostendi
futuris
incuis
distinguit
iulianus
aduerbium
ecualitatem
conatus
expi
perpetue
sanctitas
auditis
captus
producitur
lacrimarum
originalis
ullum
parati
cordi
exin
moise
##endium
cuestionum
paupertatem
possem
uixit
diuersarum
epistole
dicenda
idipsum
temporalem
falsis
permanere
defic
assir
confiteb
conuiuium
manent
##uamur
sociis
nug
##arat
cuiusmodi
dilecto
apta
leuis
imperfectum
cohor
retr
secreto
audierunt
describit
dulci
proficit
##ueniunt
##uigil
perfectior
xxuii
##orie
##aremus
grande
reddat
incons
honestum
euen
opem
ingreditur
trepid
spel
finalis
furtum
isaiam
##tiens
connot
auert
psalter
candelab
firma
oblata
medius
sensit
cumul
ostent
uestes
concede
schism
erog
uiis
singularem
##eremur
damnationis
ministris
44
##uni
reip
domui
recipiat
separari
##escant
ciuibus
acceperit
contemplationem
debeamus
incompar
insula
lucerna
conceptu
haus
cueat
uiolenter
creationis
lus
sciret
nancue
anselmus
##hs
positionem
audistis
pertineat
optimus
45
paruo
uidebat
##atoria
obediens
deprim
generum
indec
uniuersalem
auicen
pugnam
unigenitus
memento
textus
menda
obsecu
sollicite
subscrip
herodes
pulchritudinem
prohibi
hib
condidit
uocare
prouenit
##ilit
penarum
exsul
demonstratur
desit
suau
aspectus
euenit
retrac
relincuere
gradibus
ecclesiastico
bellic
deuteronom
secretum
sustinet
archiepiscopus
##ticos
redemptionis
transeat
felicitatis
##uant
superficie
durum
##iosum
affirmatiua
uulgus
abneg
##itto
temporaliter
operantur
tollere
cesarem
sustinuit
habeas
duci
tractatus
ingrati
debeo
diuersitate
promulg
ordinantur
unita
diuerso
iugo
##rices
conditiones
auis
circumcisio
precessit
facturus
captiuitate
eritis
restaur
lectione
conditionis
falsi
osee
appos
spiritualium
uanum
prau
cognouerunt
dantur
soluitur
delectatur
offert
genesi
creare
dilecti
ta
impetum
obser
psalmum
hereditatis
constet
sollicitus
tolle
incogn
iniurias
abstinere
heredem
tollitur
recuies
purpur
spiritibus
georg
uiti
##icias
repro
ueterum
utilitate
cuarru
impios
patron
peccatorem
uirginum
indulgentiam
uesperas
ax
unica
erum
intulit
##gisse
nouis
sepultus
credatur
epic
intuitu
presidio
amicitiam
pulchritudo
primitus
donauit
obiicitur
miraculo
obseruare
sumpsit
permix
fortior
beniam
frem
indiuidu
mendax
##eun
commissa
docent
##ricum
thesaurum
iuppiter
##circa
uar
subinde
stabili
sincer
##edes
ecuale
ultimam
uocabitur
uisceribus
##alter
##olim
dulcedinem
sceler
##terent
tric
dicite
rationalem
eligere
##act
hebreorum
nutrim
nube
uoci
subiecit
participatione
cere
consistere
uiua
regit
iurisdic
mitig
inund
suauis
insidiis
libet
iacet
prouerbiis
procedat
predictus
mutare
diffinitio
raci
adinu
spher
oce
dando
entium
effl
repon
beniu
laudate
uinculum
frigus
paruulus
ti
diuidit
baptisma
carmina
murum
adhes
contamin
uestimentum
fateor
nocere
confusione
holocaustum
spiritalem
presentes
locutio
natiuitatem
tangere
##stes
dicturus
duarum
essemus
incongr
petiit
intelligo
neutra
habeamus
corrupta
placeat
cuidd
inspec
audiant
proferre
redig
perfr
deserta
lecto
exting
ses
necessarie
castrum
feceris
fert
abbatem
epul
proposuit
fames
deberent
altitudo
iussu
rescrip
uidisse
inspici
elong
lector
negotiis
nudus
acie
##otam
reum
audito
spero
anathem
uertice
##cas
sedi
iuuat
indub
diuinas
agros
relictis
dominio
baptismatis
exprimit
idea
mutatione
pueros
lineam
christianum
sententiarum
alba
corinthios
prouidentie
##ietis
sensibilium
protest
attribuitur
uidisset
uelociter
uoluntates
inueniet
sarc
continentia
porph
baptizatus
cetere
auctoritates
libidinis
fraude
noluerunt
potu
parit
scias
discur
boues
auris
##greditur
antedic
puluere
accipimus
tempestate
sophis
ponat
promissum
interpell
cenam
horis
uolui
famem
admoni
appetitu
senectut
##imode
arborem
tonitr
beniamin
ouis
adulterium
consideratur
imaginis
gressus
dextr
uarietate
tetigit
ueniant
abd
habe
condita
ieiunio
##endorum
agi
##ublice
epiph
##ordia
brachium
gloriosum
mes
riu
subiug
copiam
capr
benefac
spelunc
linee
##ixa
dilectum
scribens
appellari
contrac
interesse
carmen
contest
attrah
##etermin
absurdum
bacch
saluare
efficere
alicubi
sapientem
prouinciam
attinet
ulpi
uices
tuba
##asi
contag
patrimon
cuemlibet
humanus
diuersimode
uirium
participationem
bestia
##cccc
lucr
prohibetur
emund
faciendi
euoc
##illos
##bo
##icul
secularibus
puelle
cristus
##erium
accepi
concret
patiatur
concessa
mota
uiuimus
cognitum
exteriori
archidiacon
concluditur
##tingu
aduersarius
ruina
calce
contenta
prouidentiam
fluctibus
folia
##ambul
perim
actiuum
fortem
urbs
##odum
superueni
restituere
pendet
subleu
flec
##arrac
definitiones
timens
anticua
##edific
calix
exordio
##ellas
montium
radices
mediam
molesti
decretum
porrig
substantialiter
mutari
martir
##abimur
sanus
##atissime
prescientia
scitis
uellem
herba
laudatur
sollicitudinem
matern
persarum
doctus
dispar
agnum
domibus
##ennium
##atissima
uarias
gerit
greca
processio
continere
leta
##fi
##iriorum
iniustum
prostern
paris
comparatio
cibis
hipocr
fung
signorum
canticis
uerisim
extingu
uentrem
isdem
inuitus
meth
numerorum
descendens
figuras
potentias
uiuis
tribulationis
contempn
partus
laudat
inuidie
bethle
promissio
incertum
##acc
uersum
plebe
cuerimus
##igni
proximis
mendacio
uentura
forsan
fod
donati
declaratur
mortalibus
##uentes
##osos
##itudini
incepit
ecclesiasticis
decur
accepisse
traditur
morietur
latitudinem
concessit
reuocare
exteriora
uici
derog
auaritiam
excelsis
octob
capta
scribis
uulnere
processus
##mas
priuationem
producta
apprehendit
##ulerat
audeat
delicias
imitat
receperunt
reflex
tractatu
faus
##atarum
proposita
##fera
senes
dormit
luctus
noctibus
sorores
reprehend
reipublice
indutus
iurare
ioanne
incipiat
libido
figuris
cuocirca
predictorum
annot
amas
edificauit
priora
ethic
##uth
peccant
institutum
uolati
expet
##eria
##ten
debitam
##titisse
euangeliste
addic
precor
isaia
splendore
cupio
diffusa
occidi
parere
##ibilitatem
impell
dedec
consummationem
simplicitas
exponere
tre
betius
mutationem
##oniis
##esis
fiebat
significari
apparent
moriatur
socios
patebit
agnoscere
muneris
##aco
indoc
iniunc
##orauerunt
importun
mereamur
infinitas
##ensiones
conclusiones
satisfacere
constantia
##ecua
positio
iussa
paupertas
prefigur
tradere
fluuium
uaticin
euan
lectiones
dissenti
redemptoris
solutionem
complac
auaritie
ulpianus
coniugium
sanum
supere
possibili
cuicuam
abdic
amator
minore
dilectissimi
uxori
origenes
gallic
remansit
predecess
aufert
##imb
##ilias
sacrificio
regimen
recedit
diuidi
temporale
discrep
difficultas
reson
radicem
distinctionis
uirginitatis
pluuia
relicuias
subditis
determinate
apparens
concordiam
dubitare
##umcuam
commer
acuile
perditionis
##enarius
diligens
odore
peru
differre
puncto
gale
simoni
rectus
inuentum
surrex
dabis
nationes
##ton
chor
regine
assumptum
nedum
false
nocet
digito
mars
turris
inferiorem
incommod
contumeliam
aperire
currere
ud
stephanus
##pore
marm
onera
apparebit
##oti
amica
##ticeps
probationem
neglec
matrimonii
constituitur
suscitauit
excellentiam
perfer
fundamento
permut
##esceret
discretio
##ciis
creatione
hosp
##ingitur
adiut
seruiunt
creatori
##aritas
ponamus
xxiu
infirma
uesp
grauia
suspend
immoder
cedere
corporales
iurauit
prelatis
sapientibus
composito
sedit
concedere
creati
deuotionem
cuarragesim
##etsi
perscrut
docens
circumfer
corruptionis
ornatum
animaduer
##aneum
reducitur
compositione
cocu
legisl
laborare
mansit
concuer
ducitur
cuantam
occult
cos
conuersationem
humilem
##cias
nostrarum
terribilis
finito
misteriis
simplicitatem
nonnumcuam
ualetud
stellas
crebro
pharaonis
deesse
milibus
uarie
##onio
capax
credul
accipiendum
conclusione
predicator
ecles
immateri
dolet
distinctum
unacu
accidente
##peretur
releg
uiriliter
tametsi
turpe
uili
cuerat
aceto
sime
operetur
mercede
uoluptate
fortunam
secularis
assignat
insu
significatio
ecclesiastice
interiori
##fam
pares
inicui
exteriores
sollempn
##itudinibus
generationes
ecuites
despons
##bia
sexaginta
habitant
portat
incarnatione
cuintus
cuesitum
negauit
planc
lucri
ce
solit
ouibus
innocenz
unacuecue
stabat
gemitus
communicare
aristo
primos
concedi
magdal
antichristus
consecuntur
particeps
mutata
tradunt
fidelem
rich
##urgit
corporalia
appari
gessit
autum
insunt
liberari
conclusionis
exst
confert
exstitit
ephraim
euol
prerog
attr
conuersatio
implet
innuit
considerationem
uindicta
flumine
incredul
conuentu
sarrac
##ebris
nimio
ingem
##atrix
cata
##ultim
hostias
iudiciis
necessariam
##erebantur
malefic
extremo
feruore
dentibus
lc
precedens
certamine
##edis
transform
discere
49
iudam
assiriorum
curare
participat
graues
rump
percipere
mirabili
statuta
nuptiis
attingere
##uctu
choro
insan
augusti
laborat
##entam
credider
ferme
feminam
mentio
seculares
addisc
conuentus
habebis
sana
pontifices
nest
imperfecta
doceat
##elist
obstr
meminis
adiac
fuge
lact
mansuet
proportionem
sillogismi
mulieri
amput
presto
gemin
nuda
primas
frac
opposito
intelligenda
probo
cuatern
##oler
artifex
tamdiu
accipiet
gloriose
interced
##erius
##incue
martirium
doctoribus
longincu
assumere
gig
intemper
exterioribus
conuertere
##abilitas
coniunctione
ambulat
cherubim
abbate
inuisibilia
progress
resistit
stant
mereri
confusio
carcerem
##iui
##cuot
##rauerunt
tabernacula
admonet
exprobr
centes
##ocumcue
##issio
regionibus
gloriatur
scelera
acci
latini
beneplac
ceu
antis
anhel
uniuersalia
uirgam
curauit
curios
multam
cognoscendi
cotti
##icionem
discus
serpentis
cuotcuot
dehinc
diffid
transtulit
fundatur
seruitus
lament
organum
parce
##pium
incol
occasum
comprehendere
autor
amabilis
opibus
mediocr
hereditate
partur
carnalem
##alo
librorum
contrarius
moriuntur
euidens
transfigur
funditus
templa
immens
delectat
euadere
pectoris
##anciam
pluscuam
##onias
##otes
crede
medici
castitatem
artifici
subditos
fre
credamus
tormentis
sacrificiis
itineris
falsam
noll
##ille
##abilitatem
##atissimum
##inius
consuet
attendite
anter
sensibili
indisc
elementum
argumento
racio
ple
agam
propositionibus
consortio
uisi
##entiores
flagr
erasmus
##uncuam
partum
atr
pleni
tribulatio
baptista
legat
exponi
iordan
sanctarum
infirmum
homicidium
accend
misse
inscrip
herem
interioris
mandamus
iudee
paterna
passum
inopia
tribulationes
expositione
them
necessitatibus
curat
inueniat
theologie
benigne
immortalitatem
ecclesiastici
extremis
ieiuniis
moram
carp
nonnuncuam
astu
##ois
actionibus
credis
paterne
infidelibus
##idius
dominatur
currus
samarit
instaur
conditor
lir
peccauerit
esses
gregorii
natale
uilla
debetis
aduersarii
manducat
##norum
inopi
optin
tetig
##iph
martirii
relicuie
##batur
pereat
acceperat
securi
debebat
raptus
anticuorum
gloriosus
pium
manente
ministrare
dissimil
superficies
periit
proxime
flagella
prospera
periclit
##argu
necueunt
oportun
tribulationibus
gradi
puluis
addita
contradictio
philippus
subin
publicis
maledictus
pam
remig
cerim
fluuius
accuiritur
mitto
eripi
nominatiuo
flore
augur
gaudent
uiuendo
innocentiam
gre
creatio
uinci
miserum
didicit
credendo
ostendimus
solito
labsus
sententiis
intentionis
ardore
naturis
liceret
apertum
bestiis
additum
translatio
putet
progredi
##aca
originis
sarac
priuilegium
##reli
significantur
intueri
##ticorum
reddet
reprim
sumit
appellauit
significata
lapidis
##igitur
concordantiam
obsecr
formata
audiamus
preteriti
##utorum
paracl
orth
legatos
interfecit
nis
docti
adici
coet
mentiri
demonstrare
negotia
prelia
uane
transitor
ordinauit
condicio
46
multarum
unda
##idiam
arborum
crescere
optimo
geomet
nr
inhon
cognoui
experientiam
##emet
exiit
maiestas
exsistens
dominici
singularia
surgit
gaz
euangelist
aureum
oderunt
claritatis
patriarche
uoluptatibus
##atia
expositum
##biti
solui
ager
omnipotentem
consentire
absorb
genitum
deuotio
remedia
peto
##issionis
ullam
sapientis
portum
benignus
difficultatem
congrue
concessum
nauem
amari
ordinatione
predicant
##tibile
percip
terga
specia
expertus
replic
incumb
licite
existentia
honeste
creationem
asserunt
aliene
perhibetur
exordium
migr
dimidium
obscura
proportio
##ituri
contrariorum
imperatore
diluuium
##issam
commisit
specialem
miraculorum
precedente
redemit
priuata
dubia
habitatores
##idii
moris
isreli
presidium
sepulcro
honesta
attoll
institutione
omitt
petre
utilitatis
##ecuo
auarus
iubetur
depl
habitudinem
cadat
tenens
uasis
improp
amice
considera
impedire
salubriter
disiunc
##deo
cognoscunt
abscondita
##idisti
terg
diur
##pie
damnationem
fu
exponitur
causatum
martini
repetit
admix
circuli
posteacuam
tabulis
declinare
amant
benedicta
collo
meruerunt
exar
fluit
zelus
abol
participant
celebrare
iisdem
isidorus
uolueris
minoribus
metum
seniores
innocentia
unigenitum
suspec
articulum
sepulcrum
tertii
umbram
fatetur
##abund
inuenerit
pronomen
cunctos
imaginatio
##icc
frustr
caloris
natiuitas
48
potestati
letus
##onam
clamore
paruulos
supple
inanim
scab
consideremus
impletur
socii
concepit
agentes
gestis
contradictionem
prebet
obumbr
cuing
infirmi
paupertatis
sapit
uiuificat
opi
##acibus
assit
cerc
##ecutus
speciale
mirific
negatur
utiliter
serpentes
euum
psalmos
relincuit
centrum
heresim
secuentia
mole
##icius
repenti
uscuecuo
dimittit
illustris
comitis
ambula
subditi
febru
decant
percipit
intui
##osolimam
purus
collecta
comitem
liberare
auctoris
constanter
50
suauitatis
primitiua
pereunt
mutua
octauum
bul
nona
doloribus
##oam
dein
cuibuscumcue
oliue
eus
alph
senatu
superiore
superfluum
improper
47
decore
carnalia
orauit
testibus
##essi
peccando
paupertate
opinionis
mediator
dicent
mord
fecistis
incontin
redemptionem
difficultate
claues
impun
miserie
reuerti
enimuero
liberam
luxuriam
tunica
rach
deper
innocentes
strid
soluta
deiform
sumatur
plurium
leuiter
ascendens
septent
##locu
defuncti
octog
intendere
uiue
matthei
uanitas
momento
habitauit
amisit
##tati
premio
detrimentum
curis
situs
philosophiam
##errime
mathemati
##edia
inuiol
spiritales
laudabilis
tenebat
##entissimo
adorare
uentis
##orio
generalem
communibus
cuncti
radi
infidelium
egest
turbe
cessare
existentes
nauibus
consortium
stultitia
persua
timeo
falsitas
infest
##plum
expositionem
pio
faciemus
cex
thesaurus
corruptibile
norm
longam
sperat
confusionem
elias
lata
noci
scripto
##peti
felicitate
legatus
transitum
conscius
deuic
ieronimus
effer
familiam
peruersa
loth
degen
##aturam
##ilii
siluest
profunda
spatia
uesperam
consuli
faciatis
puro
appetunt
mereatur
latitudo
##ueram
uidebis
alicualiter
respondeat
##uscit
egiptiorum
inferiorum
carm
pateretur
cuorumdam
mendacii
solitudine
indetermin
lignis
oro
commissum
miror
preda
ardens
##sos
habui
gaudii
familias
obstante
latrones
coniungitur
##orica
##aram
caduc
carnalium
impletum
elocuium
gentilis
##ciones
reatus
spre
liberatus
meti
pontifice
indifferenter
bischof
iti
colligit
##irem
superat
regionis
contineri
melchis
##pice
amatores
regiones
carissime
cueruntur
subuers
uiuet
inca
pretiosa
compositi
aspera
francorum
discretionem
presul
statutum
retinet
uniuersos
acum
continentie
oblationem
uestrorum
scholas
subtili
sess
tentatio
idolum
subiunxit
spolia
ciuis
materialiter
purpura
minora
medicinam
faciebant
crederet
pulcr
relicto
cuotidi
robore
pignus
gabri
facilis
transitus
substantiarum
furorem
altitudine
cauendum
rod
##ferum
indust
sors
modico
credens
sono
cuerite
consanguine
forum
dignitates
indef
hereses
dignos
solliciti
hebraice
##ecte
uiuentem
errone
sufficiunt
linguarum
##incuam
italie
uarro
##erio
pleris
uoluntarium
similitudinis
ossibus
precipua
pugnare
particulare
hore
labsum
ostende
brit
##riis
argumentis
miseriam
resuscit
cedit
dominicam
uerecundia
desiderii
successit
irrid
sponsum
gauis
imbecill
ipsemet
honoribus
##ologia
exposuit
stirpe
##imentis
##riti
sparg
meliores
scith
iudicabit
uirginibus
contendit
extrah
stultum
clericos
seneca
arcus
orando
impleri
frigida
xxxi
##ocue
corusc
parentis
ecuitum
pulchrum
uidebimus
ianuam
pleriscue
pridem
##utas
uidisti
terminorum
nouissimo
multiplici
deific
cuispiam
generari
##familias
melchised
subsistens
abire
aman
dedign
intoler
modica
predicauit
concordat
contemptus
uentil
dictorum
fructific
excellentia
participium
hid
heri
conuenientia
ligni
stagn
mire
##inoc
##inio
obici
##turos
sentiat
oriuntur
##ulisset
considerari
concupiscit
possessione
53
uates
figm
furoris
aduersarios
ornamenta
parens
consecuentiam
##amet
deli
relationis
sumptus
##omit
sterilis
primogenitus
##issionem
salutari
egreditur
miserunt
sororem
perfic
interiec
permis
surgens
uado
longitudo
satanas
parata
##eritatis
promissionem
erroribus
refren
alicuorum
mittam
fauorem
alicuantulum
infans
uideas
hann
grem
principales
pep
##tine
respic
sciant
atcui
uoluntaria
ecuiu
nescire
deuit
ualid
uidua
prouidere
cueritis
##icarum
superabund
philel
frigore
parem
annex
damp
respondent
fideic
##imis
accue
mont
indul
tellus
donatus
diuisit
dulcedinis
magistratus
fideicomm
##escet
uiso
sceleris
cardinalis
seruatur
possessiones
consentit
amplect
dubitat
daretur
aput
signat
considerans
collum
inducere
negligentia
solebat
coactus
memini
plurali
terrore
dispensatione
copiis
51
ein
constare
pastorem
oremus
funic
##rior
speculo
uinee
supposita
inutilis
aureli
constitutionem
niti
anathema
debite
iudicet
obsecuio
cubitorum
##tili
signi
prosecuitur
concedendum
abduc
recti
continentiam
sibil
##icione
uertitur
oblatio
aristotelem
corrumpi
alienus
decid
deserui
profundo
##lime
consolationis
struc
ethicorum
fenest
causare
infidelis
ferat
##ementum
locutionis
ecuali
deficiunt
contrarii
seruari
cede
ecuiuoce
peter
preteri
satisfactionem
sexag
impie
##pens
descendunt
fraudul
erep
herm
gentil
profert
amans
circumcisione
propugn
fugiens
custodes
indiuisibile
nuncupatur
reminis
portio
idoneus
probandum
uiuos
auaric
meridie
existentibus
impietatis
recuie
platonis
datis
deprau
dedisse
imitationem
fumus
edificationem
infiniti
castitas
irrep
piis
sciri
licuit
sermonum
disposuit
uacua
hem
##oz
stern
accidentalis
grandis
transmigr
tercium
pugne
monachis
obtinuit
resurrex
septentri
suscipiunt
constantinopolit
conatur
carolus
nouitate
##ensimo
##iosi
succurr
nesciat
supplicio
mixtum
ancille
neru
##endarum
septies
iuuenem
actua
moraliter
referatur
nescitis
practica
notam
iocund
##culorum
perfectis
corrigere
utimur
march
utilia
##bitu
declinationis
tardius
##ittimus
penultim
insist
sinum
ordinationem
alienam
##alissima
consubstanti
comprim
damna
somni
suffoc
auditores
uocamus
fletus
inuitat
pudor
remanere
mcccc
timent
iniung
fuisti
sacrorum
respexit
lucifer
uersa
redargu
ecuorum
pretex
prelatorum
secularium
ptol
gehenne
arrip
macer
sobri
##isteret
chorus
uene
pauperis
prudentes
report
clarum
consules
uirginitas
transierunt
##ibat
insurg
ecualia
otium
audisset
infirmos
offertur
essentialis
euenire
criminibus
uertit
conuersionis
eor
ima
apt
##oras
infirmis
perpend
##icho
##tilem
regiam
audis
retulit
bellis
inferioris
arboribus
prefati
euigil
func
##ebamus
artus
electionis
tactu
luto
relatiue
lepra
uolucres
latina
repos
superl
##ticem
confitebor
spinas
alas
ecuiual
spiritalibus
marth
collata
prebuit
representat
##abul
existimo
distingui
##icium
##iiii
comiti
posui
positione
exodo
auditor
audacia
cuindecim
noctu
capitula
comple
celeriter
sinodus
contradictoria
##obicue
societas
uendere
##andorum
cauere
imposuit
utrobicue
lupus
##ibr
ualle
abscondi
tunicam
itidem
iussus
uerax
uacare
impp
sillabam
prisci
contritio
lutum
cuerentes
philosophos
proles
exteriorem
totiens
expressit
superex
##porem
hilarius
proi
##taui
dixeris
scelere
sordibus
nicola
pocius
racion
potentiis
rector
tene
canonica
libidine
liberati
ducunt
ordinum
serpentem
discernere
affert
faciliter
dominos
uidue
superare
mistica
nouerit
pastoris
machab
trist
ordinatus
uersatur
fast
##rid
iudicibus
romanam
separatum
unumcuem
cister
##iculis
secundis
committere
clementiam
##erer
inicue
iudicatur
iul
##acionibus
indigent
uiderentur
absens
##sisse
armorum
superflua
marito
xxxiii
uulneribus
exinan
mamm
donorum
alc
cogitur
incurrit
preueni
tractat
uocabula
simulacra
satag
##etates
burg
nato
habente
longitudinem
occidentem
nocturno
##ocris
remis
obseruari
rogat
corporalium
##tissimos
efficaciter
occultum
##ensu
morbus
execr
respir
tribuat
deuota
tractare
consolatione
abest
##escente
##rico
tumultus
##ulsa
uolebant
respondemus
ara
##till
ebdomad
incerta
seraphim
sauci
intellegendum
uersibus
necuitie
incir
esca
##isce
cancell
unumcuemcue
##ste
adun
utatur
magnanim
dederat
prouer
designantur
infidelitatis
meridiem
##pt
ultionem
latro
exigitur
timuit
interf
irris
occultis
consolatio
120
nas
aptum
affirmat
fraudem
sita
responderunt
attulit
seruitio
ablatiuo
uestigium
uelimus
atheniens
simplicis
aguntur
uenerabili
debell
ordinatum
nunci
dirigit
clauis
hieme
##pa
carnibus
sublimis
iumenta
peremp
hieronimum
amando
delectationes
manifestius
nich
actualiter
nutu
creatore
thronum
##gam
acciperet
##itatu
hugo
necessarius
##entissimi
campo
circulum
iniurie
colligere
percussus
thesauros
prouerbium
dispositiones
gula
##esin
chan
lacrime
benignitas
reuersi
tempestas
saxa
rediens
amara
libellum
excessus
excessum
diligitur
goth
uillam
unocu
emit
impleta
complet
innocentem
cupiens
nonnulla
deris
##ures
communicat
excelsum
uestimentis
antiphona
ulcisc
inicua
integro
competere
clamauit
##teris
interpretatio
dubitationem
##atui
reui
impia
eluc
consecutus
ciuilis
prepositus
priuilegio
potero
aspic
collaud
racionem
idi
magnas
medicine
mt
potentiarum
posterum
subiectus
libidinem
adiungit
##oriam
intestin
immorta
solidum
misterii
familiaris
##uros
spont
damnatus
doli
euers
corporea
graciam
arguo
uiolentia
patuit
insult
colles
appetere
##tiores
mutat
constitui
circumcisionem
trab
decess
petunt
subsistere
exponunt
secuta
parisi
uenio
localiter
benedictionis
create
puritate
mixta
adipisc
cxx
forent
euentus
petr
latitudine
massa
cerem
arcum
titulum
##ade
apertius
sollicitudo
somnium
##erare
##tauerunt
subire
orator
fuero
iudeam
deterius
suscipe
estate
arida
illicita
celebratur
deprehend
colli
flet
dubitatio
impen
exhibuit
subditorum
decalog
christian
excitat
probant
relatiua
occident
displicet
##util
uanitatem
incendio
infantes
toi
uoti
lutherus
eorundem
inflig
penitens
singule
nobilius
cantatur
candid
obiit
recedere
augetur
ziz
probabile
uniuersorum
cantica
unocuocue
estus
latera
rationum
uiolentiam
deficiat
##abel
clero
motuum
petimus
magi
ingressi
denud
reuertitur
incircum
diadem
ecuip
indigne
uacat
excommunicationis
lateran
propius
accidunt
simplicibus
grecum
impietatem
dabat
laborum
affectibus
somnum
unigeniti
##alb
ordinat
sacrificii
blandi
eduxit
plumb
incarnatio
##mach
posuisti
effig
constitutis
fastig
dogmata
subsistit
##itores
decoc
concus
comparantur
excuir
possitis
completum
deserit
predicando
cera
pluralitas
sextam
iubente
preparauit
uehementius
##issemus
##abilior
##xisse
##esi
concur
helias
actiuam
tern
glosa
iurg
##ulatus
salue
audet
tenui
lucet
inducitur
toties
##ublica
peribit
orate
cuocuncue
din
moreretur
notus
subiici
mortalia
peccaui
diuisum
exponens
immunda
iacul
pridie
maritus
confessoris
sculp
deuen
concedit
salomonem
iordanem
peccet
textu
##ulsi
##abilitate
memores
illicitum
fri
uoluerint
naturarum
credebant
custodiunt
commoda
esd
habito
phen
discretione
uern
exercitium
traiec
nouissime
eruc
flere
cupiditatem
flammis
##osolimis
pusill
##illatim
angelice
melchisedech
idum
spum
eiec
52
##ilie
cupiditatis
clausa
hung
frumenti
transiens
puerorum
subiung
panibus
iustam
##iuam
putr
corporale
grauitate
uiciss
desiderare
septimus
admiratione
iosephus
insignia
insipiens
cha
uiueret
miseris
coniugem
amaritudine
plagis
humanas
interrogatio
paroch
accidentium
cognoscant
mortales
ethn
bip
appro
affin
afflu
appellare
mentitur
calida
philelfus
##terentur
edom
##arer
plum
referunt
perueniat
pertulit
beniuol
miner
misera
nuntius
affect
federis
parric
occidente
sedibus
missum
sanitatis
fores
animorum
coecu
offendit
ciborum
confusa
barbaris
defuncto
sinagoge
sinit
recipitur
##essa
iniuriis
incarnatus
suauiter
celeritate
ital
alis
uoluisse
puritatem
##fecit
domic
experiri
petitur
generans
leonem
promittitur
punit
pharao
##lio
facturum
bonas
agite
suaue
conuertatur
preteritis
colla
festa
superiorum
coap
mulc
asse
sinus
confirmationem
contigerit
zelum
conspectum
regie
regulis
ferens
solium
noctes
trahitur
nigred
corrumpit
patriarcha
colores
desunt
accel
discretionis
presumat
uiderat
ope
incrementum
niue
defensionem
subtiliter
significandum
uermis
absentia
circiter
cunctorum
frecuentius
contradictionis
heresi
parabola
uigiliis
aggredi
ignorans
rogauit
cuarring
deitatem
certific
narratur
explicare
pilatus
mouent
accipite
uoluptates
dictionis
uiderint
ecualitate
tabulas
##oma
demonstrationem
crudeli
decreta
cuere
##ederunt
circumcisionis
uidebant
undis
pentecostes
confring
deiec
sale
accuirere
natos
##ulosa
breue
prolis
insignis
gregis
##inctus
delectabile
prosc
parat
emitt
cari
impune
albo
##ardo
contemptu
propositi
##ricam
particulares
auferetur
##lie
sanat
immensa
duximus
sensui
greges
contritione
deui
interemp
obitum
gress
nouerunt
predicandum
redarg
tabule
expressa
nix
donat
senatum
tangitur
infructu
eici
##orius
proter
stabit
magnos
putes
frecuens
offerimus
hed
##uenda
artium
palma
restituit
introitum
sanctim
predestinauit
compositis
ascensionem
intelligibilia
recond
alienos
occiderunt
delictorum
defensione
posteriori
ieiunia
custodiat
mellis
peruerse
uiuam
ullus
uicina
acceptis
defunctus
repudi
##οn
ambulant
excusat
##endio
ilico
entibus
trucid
contem
gladii
ciuili
permansit
linte
##ardum
unione
minimis
nonnullis
##aticum
august
arcem
preclara
##ubio
htr
##itium
theat
alexandri
apollo
##orcu
sinodo
diuisionis
castrorum
##cule
aduerso
coniunctionem
rogamus
perierunt
audierit
inuenio
promissione
reuelata
seculari
efficax
##itionis
potenter
subint
apertissime
accipiuntur
paucorum
consistunt
creditis
cinis
##ierunt
##hac
concurrunt
##umbit
reatum
diliges
cognoscendum
ostendam
proprietatibus
##iuum
seculis
scind
granum
bala
prouincias
testantur
iniustitia
##tir
dolus
fabula
processum
religiosis
uideor
cantus
camera
contrarietate
cleric
subditus
athanas
uisibilia
lapidum
##cuo
latinis
experimentum
sufficeret
permanens
otio
obtr
ualens
merentur
accedat
pingued
allic
diser
circulus
licuet
refugium
uenen
congregati
sillogismo
auicenna
agentem
obiici
ictu
theologus
fauore
punctus
sinistris
adheret
dimitti
adiuuante
nescis
##uida
fecerint
##odox
premon
brachia
ordinare
placent
prophetiam
seruata
existat
nuptiarum
iordanis
eedem
paribus
##plo
uniuersitatis
defecit
catholici
hereticum
pin
diligimus
canticorum
cecitas
diffinitione
sepulchrum
inhib
interna
uiuant
inclinat
suffragia
tueri
dominorum
nasceretur
confitentur
dr
misi
utili
senior
doctoris
militem
crucifixum
pessima
diligebat
dubito
palmam
##ature
uidendo
sapienti
articuli
nuc
idee
monarch
hero
nonam
conueniant
seruitium
commendatur
platon
##fon
pallium
alimenta
conantur
habeam
accipiant
thesauriz
unicus
crederent
subsidium
ramis
cuandiu
gule
##hl
regere
predicatorum
nouissimis
traxit
##abar
posteris
ueneno
existunt
extenditur
puniri
prebere
presbiterum
sphera
intelligamus
penitet
iniustus
immundus
sirie
monumentum
##illas
consecuentis
epistolis
reuelationem
accedens
britann
arn
iniusta
phariseorum
humid
saba
candida
pascit
tipum
maur
penur
##auerant
pecus
sumi
suauitate
luminaria
cuerebat
exitu
distrah
famuli
attendere
delicto
suscepta
adimplere
stellis
pertinens
missio
malach
putauit
constituere
##acuit
cupiunt
triplicem
lan
accur
humilia
succedit
pulchritudine
##onii
conti
respl
separate
turbas
persecutionis
subdiacon
##serat
digneris
mandati
impeditur
certitudinem
assumptus
large
sacras
demer
edes
spiritalia
miro
concedimus
##deat
grauitas
sextus
impossibilis
clemens
moueb
pluralis
dimissa
legitima
imponitur
alicuatenus
putabant
uindicare
obiurg
paragrapho
euntes
pecora
uisibile
singularibus
urbibus
accuirit
addere
condicionem
pontifici
##minibus
pleno
hannib
tectum
amatum
flagiti
rectitudinem
sentio
surgere
resurgere
aspectum
indulgentia
reprobi
parth
frumentum
timentes
##bantur
parietem
religiosus
fornicationis
tribunal
hipostasis
obdur
notio
ponens
diuersific
audiendi
coniugio
imponere
conspir
cognoscens
rapit
nini
prestol
beneficii
conseruare
meminisse
sind
credant
amaritudinem
gene
contradicit
dilexi
chana
resusc
exercet
linguas
dominico
redde
reditum
gaudens
monachos
splendorem
abstinentia
angustias
sordes
plagam
##olaus
beneficiorum
capiunt
monstra
54
comites
uiuentibus
anticus
conditoris
##ensiue
ablata
inuad
locuam
rar
rectores
ingressum
ewangeli
operando
formatur
conuiuio
discrimen
##etarum
sciamus
feroc
distantiam
obstup
dandum
inaud
abut
hist
proximorum
thome
piscium
gir
##ila
##uxerit
lego
ibat
sempiternam
faucibus
carent
proprios
laudant
palati
adduxit
reuelatione
frigidum
discuti
defendit
deplor
##ιa
seruauit
coetern
inicus
canibus
##uerso
ponendo
preuen
signaculum
missis
scelerum
predestinatione
pug
predestinatus
adire
locuentem
uestit
condempn
adiur
duratione
contemnere
consid
supponitur
albi
stantes
agmina
reduci
portionem
actualis
damno
prohibuit
tristitie
suauitatem
coniur
exhibet
persecutione
recuiruntur
foliis
ment
##erp
licere
infertur
agant
prepositio
ualentini
##endia
nouas
cessante
integritate
motor
auras
contrariam
pull
##tiui
##olom
retrorsum
exanim
reale
continent
cognosceret
habenti
modorum
inhab
piscibus
uniformiter
moueretur
dubitatione
repleti
messis
scitur
gaudeo
canones
grauem
proponitur
triduo
presc
colere
assumit
subauditur
premis
##itiones
triticum
##ein
latinum
comprehendi
cuenam
debitor
facitis
mirari
inicum
superbis
adorn
compositus
uniuoce
##dun
substantiali
fundum
separatur
55
utendum
poma
euangelicam
proximos
tabula
stulte
nobilitas
decreto
infinitis
expedire
subn
commisc
ignibus
fundata
restr
caute
respicere
diligentiam
substantialem
columna
edit
spur
dominicis
subduc
thim
precipuum
processu
transtulerunt
ritus
enum
scientiarum
discept
maximis
silua
incompos
neutri
ecclesiasticam
superemin
theophil
uendic
superadd
aula
sedebat
angulos
tradiderunt
trahere
impedimento
aduerbia
eup
aptitud
insul
sentencia
prosit
inimica
edidit
coniunctum
niu
tram
optimi
habitaculum
immobilis
imprimis
dominari
locuentes
baptismate
dicebantur
excogit
curas
constring
lupi
cuamcumcue
strag
iudicandum
sard
intellegit
radius
uetera
elici
pithag
##uendi
preg
oriri
leod
senis
secura
turpiter
piscis
grauior
maculam
##ueat
seruant
deseruit
adherere
dextram
resip
negatiue
iohanni
assensum
gracie
xxix
gignit
fatum
perter
longanim
refut
cottidie
lis
philosophis
##tatus
morbi
interfic
constituunt
iracundiam
sitim
psich
materiali
affectio
orientis
mattheum
materiale
##iscit
felicem
duodecimo
afferre
##ha
facientem
deced
edificare
suscipiens
machin
sugger
eleemosinam
paral
aperto
congregatio
suppliciter
lucul
sedentem
hucuscue
subaudi
priorum
creatis
luctu
elab
lectionis
deport
induci
note
consuetudinis
diuitem
triduum
anticum
prosunt
alterutrum
cf
##ensas
putred
ciuitati
prolem
##ellere
uocum
hiper
bonificare
##ulat
ciuitatum
masculini
mad
grauitatem
responsione
duplum
reddunt
interrogat
superbe
adducit
dulcedo
supplant
iuncta
lasciui
singular
glorietur
esaias
crediderit
leon
controuersia
acul
##itato
propinc
incensum
agenda
localis
iouem
ministrat
imitatur
eradic
adde
redeat
augeri
efficaciam
sacerdotii
elocuentie
militia
mediolano
rix
##ericus
propositionum
cuandocumcue
alle
##uefac
appareret
caligine
instig
lucam
reuelauit
gratuita
unitur
alue
mart
litore
pronunci
##onsul
56
egre
penitere
consulere
destruit
pudore
hospes
incipiens
respiciens
cathedra
insulam
predicetur
##agog
fist
portu
egerunt
gerere
remaneat
beatos
copias
ignes
laici
priuatione
latinos
##aremur
adiunxit
magnopere
certius
detr
illuminatio
respiciunt
fetus
theb
benedicat
integre
crudelis
concre
laborant
felici
clementer
alicuanto
exprimere
fisc
ostendendum
edere
theologi
realem
uoluisset
significauit
signatur
uanitate
indubit
circulo
ueniente
ramos
euo
##sione
##atiz
inual
cualitatibus
euag
segn
nudum
immundum
passiuum
dit
incipere
indeb
ecuinoc
aduersariis
consecuatur
canitur
##amentorum
locutione
diligis
terrenum
premiss
presbitero
erasmo
uiderent
moralibus
carmine
##erato
transgredi
feruntur
turbam
xxiiii
secuere
confrac
delectationis
hebdomad
torcul
posteriora
studiose
timotheum
##onus
documenta
uereor
cecin
cacum
ueritates
terentius
scienter
constans
obseruantia
literarum
uegetatiua
aui
reor
spinis
patefac
principalem
impositum
martiribus
peccatori
gustus
reme
nimph
derid
planum
diuisiones
testimonii
agebat
terrene
electum
baptizari
uindicte
duritiam
gall
criminum
contrarietatem
conseruat
excelsa
unctio
superficiem
cepi
assecu
offerri
concupi
reatu
uiuentis
immediata
castitate
enn
committitur
portis
iudith
diuisibile
ficta
simbolum
partu
creuit
credite
nominantur
cognoscuntur
suppliciis
dulcia
increata
interficere
intellige
tenebatur
preesse
premit
uiuente
ruf
plagas
circumstantia
cuiet
##rap
libello
##torium
precios
ecuitate
terreni
indignus
paradisus
discernit
ficti
utcumcue
amn
cuarte
sumptu
ineffabili
iuuentute
tendere
possemus
genita
constantiam
prosperis
charis
regimine
##οs
umbre
oppido
fiebant
christianam
inicuitatibus
pontificum
cardinales
stephani
sepissime
certissime
portauit
deuotus
decimam
cumod
predictas
cernitur
##inia
cuocuo
agatur
redemptio
fos
lacedem
ontol
prolata
turpis
bestias
oi
orationi
##incuin
organo
uentorum
##abeth
##tuli
uoluisti
uallis
irrog
relicuo
cogitationem
cim
cato
intentum
intenci
articulos
gregorium
ductor
##cior
prefatus
processionem
praue
top
stantem
ecua
neglex
tempta
precedentis
##oraui
pertim
proici
coag
contractus
difficil
onere
plautus
fuimus
solos
xxxui
fornicatio
aderant
capitur
intima
molestia
fideius
delictis
cn
cuante
ide
capre
fortuit
##elech
docetur
indesin
dignam
senem
draco
uocifer
##inium
incuid
putatur
muro
##ger
##uxerat
excr
decreuit
pii
sciuit
eget
nolens
presupponit
rim
confut
dixerint
insule
aurora
periculi
predestinationis
obtinet
nituntur
aduertendum
contendunt
ministra
cecum
misteriorum
benignitate
angustiis
unguentum
cognouimus
impenit
balaam
aura
##orn
deitate
uenere
enorm
iacobum
matutinas
anast
humeris
trahunt
inordinate
agris
probata
perdur
aprilis
habendum
##ibilitate
accepisti
sublime
imponit
uelox
occurrunt
incendium
solitudinem
rectius
pertinentia
edificat
elocuentia
cernere
zacharias
##etitur
uirid
paruus
##ixus
influx
mariti
samuel
ceperat
declina
difficilis
captiuitatis
imaginatione
fuc
lustr
##roph
compens
uidebitis
torp
thesauro
inutiles
eunuch
##bio
intelligibiles
immunditia
serie
sext
uarios
martis
nolumus
odoris
moriens
senectute
poterimus
subuen
croc
##incunt
falsitatis
puncta
africa
momenti
somnia
egressi
##onei
ene
paralip
amittere
tobi
mortalitatis
proclam
uirgini
inger
undecimo
federe
maneret
negotii
prepositi
comparat
intellegimus
statui
felicis
cessauit
intellexerunt
##idisset
ignorantes
##uturum
contentio
perting
stulta
hesit
instinctu
##aten
misericordi
hodierna
intende
##ope
pretercuam
egiptii
pales
turbis
defunctis
clipe
lilia
##atice
plaus
defuit
cueramus
putamus
admisc
destruere
tax
##ibitis
operante
ducibus
societatis
necuitia
parabolam
corri
prestitit
insit
utilius
archang
##cuacue
##cion
iustificationem
remouet
gurg
mig
empir
tacere
correlatiua
60
cuerebant
resign
recu
libr
nimiam
uanitatis
nigra
##inorum
humilibus
ualuit
irra
statuam
fallor
canonice
istiusmodi
contemnit
tedium
atro
falsus
releu
psalmorum
magnifice
puellam
deuteronomio
credas
uitulum
seruet
benedicite
perseuerantia
hipp
ieremiam
contineat
clamare
concupiscentiis
hebreis
##uenti
legatur
undas
imperatori
stultitiam
hispania
productio
albis
compag
adiuuat
immortalitatis
phantasmata
genesim
palud
morbum
perniciem
##inxit
unionis
deterior
feminis
nuptie
hieronimi
arguere
altissimus
medie
luctum
feminas
perfund
meretrix
innumerabiles
##atior
contingenti
uocabatur
camel
occurrere
spine
impietas
perseuerat
nobilitate
consistat
absente
induti
profug
nesciens
instruit
constitutione
distinguere
remedio
incuirere
ech
terrib
uerber
cognito
antonius
reperiuntur
##euntibus
##bulum
##olarum
tergo
uolentibus
concomit
generantur
lucra
euidentiam
excelso
homicida
tinc
altis
##endiis
signatum
sentenciam
reddita
asserere
ponderis
alum
menstr
ihesum
ingratitud
sos
legatis
effectiue
obiectio
agnoscit
fructuum
pare
##hum
secuebatur
emere
punire
tribulationem
monachum
cantico
basile
repetere
dati
modern
cogitationis
prospici
discordia
58
respondi
philist
abundantiam
amittit
##uxi
radios
inueniunt
concin
##uber
fontibus
peruenerunt
reducuntur
cessit
dominam
positam
nosmet
##oniorum
medicum
felices
explicat
bot
habuerint
moti
ponder
logica
chanaan
rore
habentia
indiscret
debil
mutauit
scribo
atton
impleatur
pollicetur
fundo
descendat
currunt
tituli
mensure
uerissime
amos
produxit
gemitu
tentationem
claustra
uentos
discreta
fant
trina
pate
incit
affectiones
puram
restitui
ecli
suprema
irascitur
informis
uulgi
callid
dinosc
##olli
intermin
damnatione
precipimus
ecclesiasticus
oppida
uidendi
effectibus
infernus
pamph
uniuersitas
complectitur
sillogismum
##erod
moralium
legunt
durat
##ianus
peccandum
iudicauit
uicibus
dolere
integram
prouocat
uectig
contemplatio
exorn
##tirp
bid
perl
murus
perditionem
inaniter
uerticem
abh
uenis
rede
manifestatur
ueteribus
calefaci
grammatic
circumcid
##iculi
utens
punitur
monstratur
conuenerunt
mediocriter
##xisti
##aros
contendere
uirtualiter
bellorum
frond
presciuit
sulph
egredietur
nutrit
agis
prescrib
locueris
ioue
contrariatur
natali
speciosa
obseruatione
paruulorum
tirannus
simeon
cetus
gestum
ouid
##elia
ordini
petul
proprietatis
reprehendit
auth
profuit
studiorum
##iani
illes
mutu
arcana
actionum
damnati
foueam
mendacia
nupti
saluatore
##iculus
infusa
predicata
blasphemia
specifica
atrium
uiarum
despec
excluditur
animaduert
ezechiel
intelligibili
retard
absolutus
compositionis
obsidione
pusillanim
disposita
uniuersales
##regul
##limum
affectione
noxia
spectant
preuenit
effecti
rapinam
herbam
sublata
diligendo
fallit
occupat
usura
captiu
desist
liberius
differens
sortis
cuater
apparuerunt
ianua
longitudine
##tholom
appellatus
contingenter
prelatos
imaginari
exsol
sentimus
remissione
testium
posite
subsec
recuieuit
aspern
sensitiue
improuis
anastas
aditum
resum
uolet
redol
pauperi
conditionibus
retia
stante
precurs
aureis
sara
precedere
immor
secure
inclinationem
altaria
rabbi
ritu
cuibuscue
reuerend
hester
inculc
aditus
##ocuit
irregul
senioribus
canonicis
reproborum
tedio
demonstrari
repleta
57
diligo
abesse
creatam
##iderent
anticuos
constric
facultates
##opo
iret
immutabilis
ficus
##iculos
doctrinis
patere
audaciam
sumministr
demonium
doctorem
scorpi
ili
##ater
temporales
indag
uisibiliter
probantur
aduersario
electa
sacerdotio
nubem
pudet
baptiste
tutum
simonis
##adi
##omenon
ardua
sublato
uilis
dea
minorum
tribuere
relicuos
claudit
digitis
proceres
tractus
diuidere
suscipiat
cubiculum
proficiat
modestia
aduersarium
grauiora
animatum
##itauerunt
uicesimo
lacum
prohibere
hild
gustum
possibilitatem
supremum
titi
curie
malle
iudicari
excid
uicti
articulis
exaltauit
interueni
agentibus
excol
probauit
succumb
arbitrantur
compr
recur
demoniorum
casta
coniuncti
ualeamus
somnis
imaginationem
mobili
##timini
operandum
simplicia
impediri
cost
maioritas
preceps
cernimus
professione
ieremie
notis
perfectiones
delectari
muri
elegi
organa
##opon
simmach
scept
diligentibus
determinatio
securitatem
integer
59
##bis
ale
considerata
successores
planta
zen
uenimus
cuarrup
fugiunt
##ancium
##terunt
cuidnam
amatur
mall
socius
responsionem
ecuitatis
prestanti
concupiscentias
peren
petitio
discrimine
ruit
diuus
ieiunii
lugdun
fortia
scito
fixa
obn
procurator
descriptio
prauis
eramus
seriem
uniuersalibus
meritorium
infirmitates
sepulture
circuitum
debiti
sicud
numen
capiat
fontis
tentatione
particularibus
petitionem
parietes
resplend
##ellig
##otos
amarum
##encius
successione
attributa
francisci
transferre
##uentur
consule
cle
uisiones
differentes
conuenti
uincitur
uelocius
claui
litora
demonstratione
##onensis
chir
inicuis
coniuge
diffinitionem
salis
usi
petat
cuarrig
episcopatum
interpretes
primitias
idoneum
preiudicium
octoginta
dealb
rectis
apparuerit
illuminare
gladiis
essentiale
parali
traditus
merore
somnus
pascua
confuse
soller
improprie
martinus
liberabit
absolui
separare
martirio
dormire
securitas
persecui
animaduers
orthodox
nationibus
plana
hones
substantiales
seruientes
tulerunt
arat
credebat
perfectorum
contractum
signanter
collatione
lacess
complementum
spectaculum
atroc
licebit
miseretur
ferr
tribuum
uindem
discipulum
disperd
pentecosten
ham
##irentur
seua
secuentis
cruciatus
galilee
ia
##entas
##estes
meritoria
epistolas
exigere
saturnus
ictus
grex
habenda
reuelatum
dissolui
inanem
sanitate
nominatim
communio
discite
campi
auxilia
recom
creato
probabiliter
cuintam
futuros
comparari
edificium
sanctificatio
ascensionis
reos
comme
##abilitatis
phrig
hisce
sapiencia
sanctificationem
xxxu
piper
altissimo
audiendum
traditum
diripi
introire
habendo
##turas
##esco
horosc
tribue
differentiis
commendauit
accesserunt
sciam
congruum
mansionem
adipisci
cuodcuncue
##uidus
german
interuallo
mandat
exhor
accuisita
chaldeorum
rost
accendit
ponentes
offerunt
disciplinis
satisfactio
genetiuo
muc
poneretur
feras
licuido
##imen
paria
##oboam
scientiis
diligendum
pulm
##ascrip
horatius
peregrinus
profitetur
locuamur
ias
cuantis
obseruandum
uirginitatem
expectat
fideiuss
insim
maligni
accedunt
adeptus
depress
nonum
facund
excepta
elemosinam
spernit
imperti
tiranni
feminarum
deposuit
##ancie
nolit
finitur
thesauri
alexandro
presumptio
intellectuali
orandum
septi
interpretationem
rogatus
throno
##onas
habendi
bonif
testem
alexandr
solatium
stab
eleph
milite
pastoribus
congrua
aggrau
pepercit
obseruantiam
gom
##ereat
##areth
cuereret
duratio
inopiam
latum
cauet
decora
alteratio
falli
egerit
patimur
initia
ceco
coniugii
genesis
aggra
amplexus
monstrauit
nate
uelamen
potestatibus
audisti
grecus
fleuit
simonia
mundana
coloribus
passa
regnorum
intrans
honorare
superbos
seruanda
maledicti
seminat
antichristum
hodierno
sanctas
predicati
nuntios
laicis
coniunctus
diec
operandi
cultores
premittit
sufficiant
anticuitus
fauor
##erii
inestim
##acte
dominicum
agmine
congrat
prefectus
dilecte
intellectuales
actuali
##osas
sepultura
religiose
immortales
erasme
adueniente
auctoribus
ordinatio
curiam
##alissimum
faciente
glob
ualeret
contingeret
pompon
rectitudo
maritum
discedere
produci
nouissimum
misereri
attendit
interpretari
lacueum
largitur
gremio
reminisc
tell
##otis
##usta
peccaret
##uxisti
pecunias
successionem
deceptus
respec
decr
cuiuscuam
petens
redderet
secuetur
intellegentiam
austr
militiam
archiepiscopi
formidine
nepos
cuosc
insecu
locuendum
priuatus
redemptione
##eseos
hug
ideas
parcere
humidum
placuerit
incongrue
bai
exur
affuit
uirtuosus
prestet
omnipotenti
oportebit
tart
fletu
cuemcue
numina
##alemus
famulum
canit
appetib
composuit
eugen
##tatio
carens
putare
archit
##isa
inters
matr
doceret
calice
capitibus
particula
honestatis
demonstrauit
iuit
##dubio
habuisset
solitum
colunt
socium
euidentius
reuocat
adueniens
pono
excog
permittitur
prelato
integritatem
danda
exilium
uenerant
lateribus
priuatis
reputatur
perstr
significationis
urbium
productum
ludib
prouinciis
hibern
limo
cauer
orans
orationum
uiator
attenti
conuertantur
insigne
##eder
subalter
libani
maluit
diligamus
corrob
abunde
pigri
inconuenienter
insuffici
gulos
genibus
inueter
laudari
ignorant
##bertus
scutum
possibilitas
grandi
durus
auspic
auertit
obdorm
inua
nullas
latenter
consolari
proculdubio
##anei
subit
facient
responderi
fugiti
canonici
dextrum
coincuin
cuibuslibet
putatis
indignatio
decoris
abundat
nobilitatem
professionem
contumelia
margar
diamet
interitus
##cipulus
separatim
iec
ras
##pia
interne
speramus
mansiones
cicat
##formis
andree
ostensa
potior
premii
circumspec
sopor
ionath
optat
semitas
usui
mouit
affirmationem
tractatum
iungitur
crist
iidem
madi
perfidie
certamina
##ecuacue
##ulli
decurr
auditur
angul
##che
anna
profl
pedis
sentitur
imaginibus
consulibus
uolendi
acceptam
profiter
anticuo
abierunt
uetustate
nares
sentiam
uelum
propin
scipi
thur
transiit
radii
ardor
perspicum
andreas
difficilius
obstat
tribubus
hal
modul
##rump
anglorum
that
dolum
accepistis
alber
contemplatiua
lazarus
fato
necem
pecud
facultate
intendimus
euer
lectionem
ascenderunt
legato
proderit
imposita
nouos
pseudo
bur
superf
modice
breuem
participia
contradictione
obuia
elocuio
percuir
renasc
indignatione
bohem
congress
orph
confor
tolerare
##uente
##aton
paries
maritim
erigit
bestiarum
plebi
cxxx
##ffl
##ticas
redditus
interrogauit
passiue
exierunt
mansuetudinem
##enario
ordinari
difficili
adhibere
regulariter
caroli
tenendum
augustus
iustificat
salomone
nept
adolescens
paruis
subueni
calu
irasci
cadens
fest
fou
diligenti
impio
interpretatione
flammas
iuuentus
morales
sapiunt
##ebras
relincuens
exterioris
lacueo
abscondito
ede
nominauit
iurat
oscula
balne
transmutatio
##auere
errat
clarus
indiuiduis
##ubium
lip
rosa
##oriis
potentem
aram
leuia
cuoscue
mutuum
osculum
castellum
sollicita
ruine
angelicam
inton
capt
eligit
rota
mearum
agmen
noluerit
institutus
contrarias
bin
dispensationem
peribunt
minimo
consideranda
flammam
ceca
consummatio
periculosum
fel
hin
ualemus
##enarr
doce
firmum
catholicis
reple
reducere
dispensatio
includitur
ignominia
##occup
altior
iudiciorum
formalem
promissiones
iacobo
persecutio
iulii
solutum
annihil
milles
uiuorum
radiis
albertus
fallere
suppositi
contris
##iez
intern
infantia
recumb
clamorem
conuenientiam
pudoris
ingred
finitim
inson
occisi
brutis
assimilatur
saporem
pateat
intellegatur
auscul
percutit
acuilonem
##aneo
##atig
parent
arua
audiri
personalis
gaudentes
nuntium
alienig
durationis
ueneratione
falsitatem
uehemens
duxerit
expressum
##ediis
gallia
habitatio
barn
mathei
##ittam
miratur
neutro
patriarcharum
contritionem
magistros
ah
##otorum
uisibili
absoluit
unctus
roterod
litus
oz
admin
unxit
asia
iscipulus
creari
producat
pellic
dogma
sagitta
indesinenter
illata
uscuam
porri
excusare
indifferens
promiserat
indubitanter
sicca
mancipi
imperare
innasc
tollat
nonnihil
excusationem
luther
61
exposita
auget
dignior
secte
##culam
substantiale
tracta
homilia
##uel
matres
minas
miseros
gaudete
sororis
inhum
saturn
sinagogam
cauda
tendunt
agister
misticum
presunt
uitalis
auibus
firmitatem
recuirunt
purgatorio
accusare
arbitratus
disputare
uidebo
exitium
uolumine
predicato
motui
condon
reprobis
transfertur
accidentaliter
istic
plenissime
innox
medico
tentationes
uase
reprehens
distribuit
expers
imperfecti
eucharistia
auium
##itant
##refac
##torio
uocatione
armatus
organ
certitudo
helis
dictu
inflic
celitus
auctoritatibus
penitenciam
refulg
interpres
particularia
auferri
exhibi
discumb
antuer
uideamur
separat
mansuetudine
agnouit
abici
reclin
immensum
fuerimus
eger
hostie
cognoscatur
consecuentibus
relicuerunt
muris
purgat
influit
##tiliter
cornibus
instrumento
cithara
confiteor
rhetor
potuissent
asinum
tenentes
impendere
effudit
exsecr
appellationis
laicus
arcad
traditionem
adiungitur
marte
differant
cordium
renes
inuito
promptu
natalis
proiecit
##ituram
cuouis
sacerdotalis
introitu
rachel
cati
naribus
prorum
##ibo
habentis
chorum
alte
miseratione
finalem
uxoribus
determinare
molest
deliberatione
protectione
bethleem
festis
##ialis
usibus
distant
dissimilis
presumptione
oblect
docendo
ecuitatem
solio
conditus
archiepiscopum
congaud
extim
exilio
utrim
haberetur
legiones
ioach
ministerii
maledicta
hipocris
tormentorum
egregie
iherusalem
##inea
subuenire
sanctissimi
notionem
copiose
intrinseca
monas
certior
uall
precedat
niger
platonem
inenarr
negari
euangelia
##axat
iustificationes
innotuit
enigmate
##umentorum
##itasse
formale
utiles
cuarri
intellexi
scrupuli
recap
predicamentis
uituli
augusto
dedisset
grege
corruptibilis
pronomina
priam
ignarus
horde
mittens
incuirit
supradictis
perfectos
emisit
multiplices
perseuerare
regenerationis
##ilo
##bii
consolatur
##aueritis
careat
inane
ueras
prece
recuiescit
proportione
obtulerunt
timendum
ceciderit
perfidia
catech
persecuitur
leuius
suspicio
iniustitiam
##matis
##undis
insigni
uocata
transitu
dignatur
captiuos
peruenerit
scribi
leuite
nollet
proueh
opitul
significandi
##anna
senectus
desidero
figuratur
##sio
##uras
susceptionem
preparat
susceperunt
indiuiduo
ouem
utrimcue
iumentis
staret
despic
culpas
supplices
pod
subiectiue
octauam
dotem
ferebatur
argui
noct
eucharistie
remouetur
approxim
##arim
faciendam
consecuenti
secuantur
possidebunt
persecuti
profertur
asini
uocalis
generandi
culmen
ducti
scandala
ineffabilis
tenemus
benedictum
determinationem
congregatione
inclinatio
gustu
##osior
aras
generalibus
putabat
ardorem
uetere
filiabus
pullos
apertis
anticue
##othec
triumphum
coniungit
##lx
persp
impul
ingratus
pulcherrima
mentium
##titi
florem
uniuersas
##aneus
inimico
presbiteris
columne
eleemosina
infantem
germen
supersubstanti
nicolaus
##pul
##tite
ideam
timeas
mensem
accipiamus
professionis
adolescent
imitatores
fimb
##ensur
sumuntur
misertus
hortum
philosopho
duritia
condition
garr
##sent
uitii
scripti
fraterna
intentiones
interiores
presbiteros
indiuisibilis
destructionem
teneantur
incomm
lucernam
dentium
##anius
##ibilitatis
assignari
babilonem
uespera
intelligas
exstingu
dedimus
temptatio
confido
consideret
oci
##ialibus
habitudo
schem
reginam
tempori
##aneis
uigor
impietate
cantare
frontem
turpitudinem
celebramus
paralogis
##illes
intre
humanarum
absoluere
prohibitum
curru
tristes
pluuiam
##ono
regali
immemor
induxit
expoli
ignoro
refl
ultime
bibli
assumitur
disputatione
codices
plut
utrumlibet
saluatur
existentiam
recapitul
leuitas
putauerunt
ambe
stoli
patent
##stantibus
simplicium
constant
terminata
confitemur
asseritur
imprec
62
tuto
##erb
moriendo
indignationem
prophetica
reuertere
posses
preoccup
uisis
contingentia
lineis
satisfactione
stad
aptus
mirrh
grecia
dure
coniugis
parabolis
timeat
portus
expand
ibant
efficiunt
acuilonis
immobile
amori
cuempiam
institutis
campis
uetat
peregrinationis
abhorr
porphir
labe
oblationes
sabinum
sillabe
pristinam
area
obserua
##tita
diap
##uetis
agar
cuarti
clementie
correctionem
sepulchro
##rhe
plante
plera
##assem
format
significationes
puteum
armen
multiplicatur
estimo
excelsus
institutionem
resipisc
fudit
primorum
confidit
cognosco
secuentem
intellegamus
impetrare
recolere
danih
identitatem
actis
ultionis
fures
dirigitur
prefato
ibid
largit
noscuntur
academ
abissus
ioui
furto
extorcu
terrorem
calidus
fener
immaculata
scripsisse
will
##olos
misisti
studet
mediantibus
inclinatur
peior
limina
ludou
pulchritudinis
facillime
econtr
mercurius
raimundus
execui
##acensis
oppositis
saltim
timp
iniun
missas
interioribus
iericho
propincua
positiuum
63
sop
transiret
##illab
largitate
definitur
candelabrum
##atiuas
exurg
cham
contrem
emolum
stilo
cegit
mam
abissi
arcu
carentia
capp
scriptus
superba
##ennio
corrobor
acrius
audierat
rubrum
commode
imminet
intermissione
lauit
##ellos
uolut
subiunc
145
resurgens
adoptionis
metropolit
sad
##anarum
subrep
spiritale
innit
cecitate
recipiens
maledictum
materialem
lou
parm
##ogiz
expurg
nobilem
sociorum
##ciens
semini
apostolicis
cueras
aduersariorum
exstinc
illuminationem
repletus
consecrationem
defunctorum
locuebantur
pleracue
uenie
sallus
odisse
recuirat
clausis
meditatione
perhibet
accuiesc
dal
fruitur
gloriosi
uigilias
hospitio
consanguin
paralipomenon
econtrario
##ht
intentus
reditus
pulcher
diuitibus
pascitur
maledi
##ordecim
ostendatur
breues
agnitionem
psalterium
subuert
regnis
experti
militis
copiosa
fornicationem
fateri
philipp
indistinc
iumentum
conficitur
plect
nostis
lacus
furti
eui
##ensius
amet
grana
phal
significent
potissime
nemine
existimant
excellentie
feruor
retract
recompens
##isus
uenena
captum
admittit
prefatum
confitemini
securitate
meditatio
urget
erexit
humor
seruetur
gaudeat
##ortun
accusat
bernardini
##enarium
##rebat
##lima
determinatam
ancillam
ambobus
altiora
adinuicem
foramen
credidi
cuerentibus
amborum
campos
superbum
undec
festiuit
allocuitur
insimul
pestis
##ierit
transiuit
plurimorum
reuelare
sumpto
abissum
cuampl
differat
negando
concedat
diuiduntur
successio
elocuiis
astronom
##aminis
ullis
terror
priuatum
ciprianus
##har
hiac
communicant
imperfectionem
astric
bestiam
heret
durare
narrauit
infima
incant
creduntur
mutatum
concepta
incomplex
irritum
maiestati
assignare
##errima
relicuiis
emendare
risus
troch
maioritate
predestinati
ceruice
##uui
uidistis
anguli
turpi
iacere
canonum
coniugationis
perfor
##anse
audiret
uestrarum
profectu
oriens
recipiant
supponere
ignominiam
lazarum
admittere
sanctificationis
certaminis
##ogni
munific
dirim
inducta
elocuii
barbari
feminini
cuir
complic
honesti
tantopere
uigore
##atiuorum
exas
##aturos
##gred
pluralitatem
diuisus
dispositionis
feruorem
extrinsecum
gad
nathan
##cionibus
infec
preordin
##aneant
tributum
pastorum
captiui
cupidit
geli
gross
insania
##istam
extrinseco
pompeius
infici
dicentibus
##ebuntur
capillos
impedimenta
adulterio
herbe
phariseis
cinere
artificis
64
exeat
ostia
placatus
medicin
remanent
schol
nonas
subtra
saltus
##itudinum
##incti
declaratum
attendentes
admirabilis
intenditur
solebant
ignota
relatiuum
concupiscibilis
uirginitate
prediximus
inutile
##alogo
##otem
audientium
sentiens
restitutionem
tog
uina
percul
parare
ulul
peditum
firmamento
rapina
philippi
aiebat
ueti
##bulo
ueloci
##uiiii
famis
bibat
conuerte
rubricam
diuturn
gede
aderat
factas
asie
reddam
dimensiones
membro
extendere
inopin
nescimus
infal
errorum
mortalem
sincera
calumniam
uerisimile
interpos
coli
peccasse
nouer
docebat
studii
instat
contempsit
sacrarum
parentem
intelligentes
terminantur
herodis
sanctuarium
angulo
occidunt
sillogiz
uictores
sagitte
fraterne
scintil
celebrari
rubi
gloriantur
pertract
centro
fastidium
lana
sath
##essent
interitu
sera
ministrorum
magnificentia
monstrat
uirili
pennas
formali
redem
gala
concedunt
sceleribus
66
amantis
plantis
audacter
subiectos
cunct
concordant
ebur
monasteria
mittuntur
incrementa
ada
paulis
preest
urbi
uiuendum
clamant
subtrac
erup
##uitis
solita
ascrip
uideam
gerens
nubere
mittat
immortalem
deficiente
alexandrum
##narum
scal
misero
emer
gemmis
reperiri
minoritate
egregius
incorruptibile
amodo
istuc
predicandi
medietatem
ioanni
##ologiam
consultum
impediat
apo
coar
dixerimus
extrinseca
pullul
##das
operationibus
famulo
experimento
sonant
remotis
##ittebat
##lxx
musica
adoptionem
innumera
##ibant
##iture
confessor
conuentum
uarietas
babilone
##ham
idonei
sensibiles
metrum
infirmorum
uestium
incomparabiliter
paulisper
uenisti
ceterarum
adulescens
antichristo
hierarchie
uidentibus
solitus
##uencia
sensibilem
responsa
penitenti
oraculum
campum
crescunt
deseru
anth
particulariter
humiliat
pasce
agamus
iudicant
necessarii
##auentur
admis
egiptiis
inhi
accusator
ascendet
regiminis
officiorum
##atici
uelud
reditu
credita
prehab
osculo
productionem
tolli
repugnantia
paschalis
rectitudine
lilium
pant
pereant
sciencia
possibilia
locuere
corporeum
effecta
turbatus
gratus
adhort
somp
oracio
assidua
inhabitat
orbi
predicans
optimam
deserere
intellectualem
obligat
competenter
interdictum
infallib
ponimus
aureos
cogi
sufficientem
crebris
spiritalium
euentu
replet
##enarum
##utores
interpon
iussi
donatum
negatione
finali
participare
portant
distinguendum
ueniamus
collocauit
perueniunt
argumentatio
uirus
arith
possibilem
uitiosa
gratific
excedere
odii
galatas
modific
destruxit
sepulturam
philippo
april
zizania
ritum
##ixum
complect
nobilium
deliciarum
dubitatur
tritici
refic
sanctissime
neue
ciri
scribendi
reddite
ornatu
apprehendere
componere
stellam
bonauentur
mundane
prophetauit
merg
preparare
instrument
masculum
triste
pondera
##rom
pregn
defecerunt
imitantur
thesauris
michel
natu
tuta
##uidum
singillatim
famulus
manifesti
canone
palatium
affirmatiue
flagellis
eruditus
##itans
cuesita
seruilis
mediate
letatur
umbras
exaltabitur
ministrum
reuertatur
bethius
incorruptibilis
radicibus
enumerat
foc
##elles
minui
penitentes
rogare
dubitet
introitus
inacc
habitudine
##acior
prestit
cogitari
ultimis
existentium
conclusit
persecutiones
prosperitate
intuetur
sudore
madian
comite
perspex
timentibus
putaret
declam
instantiam
existentem
peruenitur
phantasia
gesti
predicamenta
graci
obiectorum
placita
isai
condol
melioris
suadet
uolente
##atorii
euu
speciales
obsess
prosa
interpretantur
mittunt
fastidi
cruore
##ritus
##morum
amauit
glaci
ignotum
episcopatus
corporeis
expend
missarum
figurarum
##acitate
humo
misereb
impossibilia
diuitis
matutina
uoluptatum
transcend
friu
ges
tenemur
brachio
##estem
locuetur
herbas
mollis
abren
docebit
ciuile
recordatus
ratum
anus
coloni
thn
iacebat
definitionis
imaginatiua
remissionis
moriturus
uscuecuacue
gerunt
cuminus
amantes
plasm
inuenisse
reuerenter
pugnat
stig
catholicus
masculinum
proportionaliter
prandium
##roch
intum
pergit
##olem
reali
##apis
##asses
indom
solida
precedentium
tentationibus
imitatione
materiales
herbis
incidere
65
resec
uiuamus
nescientes
tacitur
resurgent
honestate
integritas
derelicuit
exercitio
nod
tocius
cuestus
resc
uocetur
herc
rationabile
habitabit
ric
##iod
##uribus
imperatores
uirtuosa
lactis
determinatione
preditus
consummata
decretis
persecutores
seductor
iudicandi
consecuentie
admo
stil
ingenia
obligatur
exaltatus
dionisium
pigm
oth
assensu
spond
grauissima
repleuit
fluenta
consueuerunt
destructa
expectare
reciperet
congratul
prouenire
manip
assec
uisibilium
diligentissime
ducens
##inamur
separatus
perseuerantiam
confidenter
crucifixi
##proc
malas
predicamento
premisit
epistulam
suffer
satan
contentione
coniungi
patenter
oramus
miseriis
apostolicum
neget
luminum
instanter
medios
reperire
magnificare
pertranse
sagittas
eueni
potencia
##egen
posteriorum
series
subdita
imminere
lacueos
obliuisci
beneplacitum
dicentium
similium
scism
hortus
magistris
festiuitate
dunt
pluris
premisse
omnipotentia
notitie
marmore
##iculam
enee
##ingi
sacerdotali
perdat
concorditer
obscure
honorifice
gabriel
dacti
cuerenda
conuersis
scribam
damni
ascendunt
rauen
dirigere
recesserunt
illinc
colit
calendis
testatus
circumf
nouissimus
exaudiuit
instrumentis
decalogi
decimus
inicuos
indicia
beatissimus
incomposs
fulc
essentiali
possessionis
inuisibiliter
tons
compunctionis
strepitu
classem
##uca
superc
formauit
monitis
licebat
sexc
aperitur
cinerem
dominii
auream
litem
attentius
prestan
deserti
##ologus
eligendum
celerius
instructus
duntaxat
##opt
agres
intellectio
transs
student
deteg
diuidatur
comprehens
sublimitas
##eunte
retributionem
dionisii
abstracta
egisse
unico
factorum
inuent
attribuit
hospitium
reciproc
fef
regalis
fient
rediret
euentum
aperti
obsecuiis
composite
introduxit
digest
hilar
repromissionis
identitas
pertrah
actuale
dira
obligatio
##tiuis
secuamur
subita
commendo
sapientium
inicuorum
existimat
sei
perspec
uicia
diligi
longis
##uamen
rationabilis
conceptionis
dulces
iustificari
iugul
preparatio
complexus
impediunt
hasta
pelle
##imelech
uenust
insani
laudabile
bruta
deducta
uolumina
plinius
ponebant
##oremus
ueneranda
naue
festinat
latronum
intrinsecum
addito
coniunx
palmarum
temeritate
pseudop
crescat
eccle
cuemcumcue
donare
distinctam
absolutam
dextere
plateis
concipit
concipitur
suc
salutarem
penetrare
##rauerit
paruam
genitor
uenissent
legendum
audeo
notas
profecti
amal
sanctissima
decenter
emic
cuantitates
litera
priuilegia
incommutabilis
committit
introiuit
matheus
martha
##enu
contrib
##positionis
egiptios
contradicere
cedat
cuarragesima
absconditum
pretiosum
operans
preses
liberorum
##anee
capitoli
damnatio
ausi
deficiens
eripuit
iez
perplex
debeas
mutabilis
suspicionem
mereantur
ualida
supradicta
pristinum
euasit
percipitur
##iliam
fera
seruiendum
efficientis
uanam
galilea
##man
constiterit
foribus
assurg
egiptus
inflex
ethere
explicit
consecratione
congl
prodigia
anxiet
persuadere
iri
##issimorum
inuenietis
prepu
ieiunare
asseruit
scandalo
norunt
uario
##ιan
adesto
existentie
consulto
concordare
uenialia
##poli
##udo
uniri
precell
continui
discessit
litere
relicue
rapere
xxxuiii
copula
gentilibus
persecutus
suprascrip
cineres
damus
fatis
telis
perip
##ilocu
recenti
genui
creditum
nominatiuus
preemin
poculum
tribuitur
compleuit
ultimi
plurimas
grauibus
estimare
inuisibilem
abstinentiam
excels
festiuitas
ascensione
circularis
hierarchia
##ba
eternorum
siluis
mansio
intendunt
ezechias
sinistrum
##alus
actor
peccantes
stabant
uerbera
ferarum
##tissimas
declarauit
responsoria
postulare
afflictionem
messem
uap
persist
testamenta
didici
phantasma
diaconi
superua
oras
uocatis
ulli
tributa
leto
catholicorum
uehementi
obscurum
intendat
pollicitus
holocausta
cualibus
incus
agath
operationum
procli
collis
materialibus
clamabat
commendare
aufertur
disputatio
afflictione
predixerat
cristum
consonat
effugere
otiosa
##ulta
scripserunt
tenuis
locutum
seruiat
ardet
deuol
desinunt
diluuio
enoch
stabilis
misericordes
multiplicat
participatio
contingunt
claudic
nepotes
carthagini
agrip
contracta
tois
sufficientia
graduum
nigro
immunis
facerem
ecuitas
inicuo
rete
gemina
bartholom
iuuenum
desideriorum
cantuari
ruth
commento
cuantumlibet
magnificat
xen
prax
scientias
spirat
cult
demonstrationis
heredibus
primogenitum
bus
meta
intelleguntur
pauciores
iuuare
pomponius
clarissime
monacho
elie
cuerela
appellationem
illico
confertur
aries
inuestigare
elemosina
archidiac
exasper
##ursum
subest
completur
periculosa
excellenti
persecuntur
uocabulis
proficisci
potuimus
suppono
rebelles
perspicue
dorsum
enut
obmut
formatum
nominari
necueat
##iderint
uicinis
##iosis
conuersatus
terrenorum
cuippiam
breuitate
adorauit
posteros
temptationem
flamme
intime
simbolo
ecuipoll
crap
comitatu
capilli
demonis
addatur
iucunda
percurr
cuarruplic
archangel
grass
conferat
decuit
petenti
saluat
clericum
econuerso
dap
liberet
teneant
diuersam
thearch
ingentem
diabolica
latino
interpretati
paruulum
lach
pendere
audientibus
solutione
efficacia
dispersi
stricte
euenerit
hipocrite
##ulsit
acri
crura
manebit
probet
ambulauit
comedunt
asperg
simulacrum
##anes
temet
infortun
stola
debuerunt
benedicere
religioni
confiteatur
steterunt
cem
amandi
locuentis
affirmant
translationem
beatissime
bouem
throni
cerebrum
ulix
conte
comedi
uulpes
indefici
uariatur
ligat
peregrini
acuilone
infidelitate
nazareth
henricus
##public
decies
iesse
exaltat
uestigiis
lira
##αn
cuie
dicenti
libentius
hector
classe
audimus
minimus
ecuitibus
manifesto
dederis
mouente
contemplari
reperit
disperg
##za
possific
tantas
obliti
uendidit
iunguntur
opponuntur
iracundia
nach
dictione
alarum
corruit
castro
egritudine
pilato
lancea
hercules
patric
teneretur
tenebantur
relata
ouidius
##peram
clang
##iniis
cognoscendo
simplicitatis
uigorem
addunt
corrupto
medicamentum
substancia
incarnatum
decime
temperantiam
correpta
adiuncta
remoto
metuit
extensa
moisis
constantinus
antonio
inherere
##utura
abig
irrem
occiderit
cantate
indicare
achab
boum
incip
consulit
deduxit
tacet
gloriosam
blasphemie
aromata
diat
iudicas
thus
liberationem
calciam
millibus
sentiendum
daturus
confusus
exhal
consentiunt
ebrietas
sidere
##mel
adag
exec
corone
conscrib
bonarum
ponenda
##atissimam
mensuratur
cuiuis
incr
credibile
republica
ducat
studeat
144
remaneret
imber
bald
amaritudo
retributionis
rumin
feret
secta
potuerint
diuor
fueritis
luct
rationales
molles
ruben
egred
cupientes
plantauit
crudeliter
baal
tacuit
connum
solemus
inferi
moderam
suaui
docendi
aurium
pertinaciter
ignoras
cecos
optimis
tentationis
iuno
negligentiam
piger
circumstantiis
peccantibus
locuente
dignis
ueniebat
dilecta
reddatur
edibus
rebec
rhen
maii
redeamus
permaneat
speculatiua
talenta
gomor
##edon
intue
uenirent
perspici
ecuanim
pertingere
damnat
priuatim
confirmauit
inclina
fouet
facultatibus
amissa
damnari
priuati
pulchri
plurimam
agnoscitur
ligatus
ingressu
magdalene
oratores
famulis
infinitatem
diuisi
mediolan
siderum
pung
##ititur
##den
##aldus
scipio
postpon
regium
fenestr
galaad
incul
##lii
##ituros
intelligeret
necessitati
sacrificiorum
frecuentia
prefata
oblatione
organi
conuincitur
excessu
adorauerunt
ana
sicuis
orabat
commensur
uicium
leonum
offerat
impleat
rett
indicauit
samaria
benignitatem
edicto
ezechielem
bra
foss
ot
##ian
assunt
accepisset
demonstratum
mites
delicie
iunior
lani
rbi
sani
nouiter
intelligant
suppositis
miserrim
##uamini
ordinati
consimiliter
incolumem
amandum
uenerint
leuitate
studuit
sperantes
approbat
fugientes
meretricis
subtilius
perrexit
parente
iamb
labsu
gallus
minoritas
ministeria
fern
##odius
secundario
presag
ordinatis
delectabilis
possident
pontificatus
residuum
##fo
orantes
##temur
manasse
predicatoribus
incub
accipias
intellegentie
attendendum
transcendit
fermento
pluit
sina
classis
audent
scriptores
petentibus
leones
cuinti
dolos
lacu
turbine
statua
assumpto
refugit
moses
elim
##orii
uelamine
nulle
miraculi
dolens
manifestationem
nubis
xxxuii
categ
lauacrum
aristoti
cus
habebatur
tenus
diligendi
consideretur
errant
obiectis
cepisset
confirmare
uenerabilem
fabulas
processione
splendid
preteritorum
perducat
irascibilis
pronuntiat
tremore
subscripsi
bub
##ode
epulas
##insecus
conseruationem
peccatore
stetis
condicionis
legitimum
cucurrit
secuebantur
intenta
sciencie
posthac
summopere
saluabitur
receptum
suscitat
tecto
siccum
coroll
admitti
iubentur
iuga
pudicitie
author
liberata
acceptus
parroch
contubern
notific
credenda
errantes
destruitur
incommoda
##dudum
scienti
liberaret
seniorum
##lax
mec
##etati
inspic
patiebatur
excelsi
iucundum
beneuolentia
exstat
utcuncue
poneret
repti
constituto
secuente
absolu
eleaz
coniunguntur
scual
conspicit
laudabiliter
acutum
innocentius
affirmare
uacus
infundit
illecebris
##be
dicerem
parturi
opto
considerando
efficientem
cupido
nobilitatis
exsistentia
excuisi
uisitare
omelia
contentum
rescrib
##aciti
##toria
agentia
credendi
nominare
professus
cibaria
precedentem
concludi
preuaricationis
prouinciarum
exspectat
cueant
iudico
elen
indigna
utilem
translata
##esimus
perpeti
sitit
consent
cruent
aspicere
assecui
clamaui
falsitate
sublimi
tribunus
carceris
mathematica
iustini
uitre
##auus
caste
ecclesiasticum
gladios
uastit
cubitos
adap
superauit
ponantur
marcum
honora
premi
prosec
cautela
deambul
##uex
pretii
nolebat
statuere
respex
dispositi
##istin
enunci
decoll
formare
altern
summer
obediendum
occasiones
religiosorum
subaudis
misereatur
fermentum
opific
83
uanis
decebat
totalis
##uido
uisibilem
probatione
porr
uniuersus
adorant
fallaci
lineas
translatum
presumit
imperauit
sexu
socio
cessant
suspensus
suauitas
trancuillitas
sacrilegium
dard
cuerebatur
iamdudum
elabor
intellegunt
mouentis
prouerbiorum
miti
##ιas
aduertere
extem
inscrib
diuisibilis
promissis
##adibus
theoph
ferrea
disponere
appropriatur
70
feti
inuali
induere
doni
domorum
audiendo
palatio
confirmatio
preposito
lites
gaudiis
inferri
nigri
albedinem
iuuentutis
africam
demonstra
penetra
##hai
##uast
moralem
##asce
accipienda
puritas
conceptio
celebrata
infunditur
turrim
paragraphum
felle
dominabitur
fren
colitur
teneo
teneret
pluries
##ioso
dissid
predia
dilata
reuelatio
imperfecte
incendia
discrete
astutia
columnas
sedulo
doceri
##iuus
corruptum
censura
prenot
uerecundiam
cuacuncue
rara
##ittis
postr
passu
immundis
##doch
consecuti
fragr
metaphorice
conformiter
inspiratione
respiciat
idonea
beatissimi
cerebro
fauces
possed
uocationis
leone
##encias
duris
cadent
uestitus
repugnare
barbam
increatum
euc
##uag
referat
158
seruituti
temperantie
nonnullos
collegio
fecunda
##ull
grauitatis
uenientibus
frecuenti
ais
nutum
perenn
arrep
offensam
caligo
tabernaculis
incomprehensibilis
hipothes
inus
##elas
recitat
tutius
manentem
notiones
documentum
intrant
rationabili
inueniantur
blanda
propheticum
clausum
perierat
uineas
francisco
immaculati
##of
ense
concludere
transferri
ratus
rutil
locali
dignius
conceptione
dissimile
usuram
exsistente
posterioribus
rectitudinis
ianus
mh
##fem
inani
peracta
##ilus
indigens
sanctificatione
subdidit
malignus
dextro
##otas
primordia
associ
scribas
multiplicem
silue
octauus
reducit
afflictio
descriptione
manifestauit
priscianus
petas
diligite
castella
narrare
theodos
elisabeth
fuistis
##feri
##ien
sentiant
tollatur
redemptorem
dimittat
chalc
diluculo
preiudicio
##ires
eccl
neap
##atorie
cirus
euom
iuri
delicti
ardentes
rebelli
nouerant
lumnus
utritor
sagin
preponitur
##erata
filiatio
nolentes
habitantes
##entissimam
uillic
galileam
cathedram
amnis
inferis
causaliter
tenuerunt
illuminans
colligi
fulgur
apparebat
##eramus
enti
parauit
insaniam
ponendum
lucid
ascensus
separationem
rapuit
trahi
religiosa
deducit
##iderant
68
bacul
lor
compress
animantibus
iudicatus
duceret
acceptio
uidear
multoties
molem
argumenti
uictore
recedat
abstractum
lampades
##zb
uocatum
eiecit
effud
mirabilem
culpis
grauissimum
conuertib
implicat
habeatis
relictum
fundauit
oriatur
efficiat
federa
germani
honestatem
tube
oua
sedentes
habitibus
prospere
adduci
ornata
contemnunt
fragm
accuisiuit
confic
##ficat
laudamus
fructi
benedictionibus
efficiuntur
sensitiuam
accessum
deriuatur
predictos
regnante
acciderit
famulos
accusatiuo
familiari
##auero
suscitare
zacharie
antedictam
milium
uterum
solic
dispositum
diligentes
doleo
terreno
exercent
archa
oblatum
innotescit
cupimus
pseudoproph
72
adin
consper
manes
intelligibilem
##leti
renunci
designari
fragilitatis
momentum
eripe
exsurge
habebitis
##rentur
##ucio
delectantur
imaginationis
redimere
laterani
fud
dicimur
malicia
custodie
uiget
septembris
subtilis
decernimus
sist
##atuum
gros
minuitur
fallax
collatio
sanctissimus
uestimento
saxo
adolescentia
corripit
irradi
##arorum
regitur
perfectissima
gallorum
sustulit
benefaci
acutus
misso
humiliatus
socratem
dinum
mc
sm
legendo
concrem
turbul
receptus
harmon
tauri
subiacet
cuesiui
moras
agerent
tenore
apostolici
leues
pertinentibus
illuminatur
recipiendum
119
adultera
militari
pagani
ceg
##ego
spectare
petam
ioab
pocula
metuens
referens
separatio
fornicatione
inaccess
cella
##iale
uiduam
accers
mutus
stipendia
suspicione
cristo
intercessione
dictas
##terit
principalia
uitulus
gemm
comprehenditur
falsos
confidunt
proficiunt
hiems
excedat
progenies
ianuarii
cuieti
uolendo
nullos
latent
capitulis
comparata
dilatione
purgationem
pascere
mobilia
cornelius
letificat
conspec
multus
uerberibus
insect
##itiis
iustificatus
auditorum
nationum
moralia
uolentem
uenerem
assuet
infirmitatibus
nobile
catholicos
existeret
fulgore
translatione
conueniret
taciturn
auertere
mau
remotum
demoni
priuato
trancuillitate
stimul
gehennam
sphere
lumbos
##dos
##iris
sicilia
assur
denarium
luxuri
congregata
estimat
ineffabilem
sinodum
secreti
theophilactus
priuat
occasu
abundare
estimationem
cetu
concipere
causata
perdet
uigilate
connatur
ubertate
preualet
digitos
zeb
##alissime
uicarius
perfus
excedunt
##alitati
alicuantum
diuum
apostolico
delph
tollite
responsorium
humiliauit
nauium
lateat
cohabit
idololatrie
innumeris
hieremias
incommunic
67
tiri
sermocin
mutantur
tumulum
medietas
susceptus
consulem
rami
dana
primatum
dignitatibus
uirtuos
munditiam
censuram
masculus
honestas
grammatica
fingere
##serint
##br
genet
localem
flatus
liberaliter
honorat
inuisibilium
pacifice
genitrix
##idimus
incedere
cognatione
curs
lucro
ambulans
immundi
oblicuo
agricola
fatu
deposita
prouen
##atissimus
clerus
excidit
peteret
patiantur
extremam
##εn
##ueras
intuens
sumunt
annuntia
ther
uicta
mirandum
fingit
amplec
expressius
cccc
dedecus
bu
diceres
acetum
uisibilibus
uniuersitatem
direxit
illicite
concedatur
ornamentum
ambitio
perducit
danielis
dent
unitum
##opotam
bonitati
interposita
crederetur
armati
circuit
cardinali
obuiare
deponere
constantinopoli
##olor
chori
monumenta
probe
agnosco
cis
##sas
proueni
damnare
dubie
iniuri
calido
exhaus
preliis
repperit
suppet
debitores
anathematiz
tin
##anias
##atico
cuodcue
##abamus
cerui
curant
successoribus
cab
timuerunt
consecuantur
effecit
sentiret
sustinent
redempti
inuasit
exinaniuit
##rad
asino
crep
monumento
historiis
pretermitt
dictat
impingu
epulis
defendi
conuersum
durationem
sperant
nascendo
didicimus
simmachus
uesperum
inseparabiliter
cuarragesime
fenestras
nih
salt
numine
ducta
inueniret
conuenientes
recuiratur
ezechie
penetrat
##osolimit
reedific
serue
magnorum
passo
mutato
considerantes
multiplicatio
camer
purgare
falsas
leuitico
uitandum
prede
peruenisse
desinat
plage
##uissem
acriter
confitendum
cedes
indulgentie
resurget
inimicitias
risum
auferat
hospites
##arint
sanauit
obicit
annua
uictu
designant
daturum
calefacit
fortium
alm
susceptum
fraus
leuare
tristia
albedine
egressa
febris
##omb
##ialium
commenda
manifestatio
dirip
##itorio
tutela
mansuetudo
districte
inconuenientia
nutrimentum
aspice
times
##pectui
71
##reui
amatus
immer
nuntii
sonare
cupiebat
textum
professio
contrahitur
pessimum
coniunxit
rustic
natis
ino
facientibus
motiuum
miseram
disce
##petit
emittit
exemplaria
indicant
utrincue
proferuntur
accidentale
denominatur
lucerne
lauacro
oppositio
debilis
obligatus
lumbis
conspex
cluni
continuis
munerum
castus
particularem
fluunt
transeamus
mixto
definit
decipere
dabunt
lag
##itter
uniuersalium
manifestare
##aphis
uiolenta
gregorio
excepit
rhod
digestorum
abimelech
agenti
labiorum
auun
accipio
arduum
reperta
prole
disputat
pagina
basilee
fol
exiens
plaud
captiua
eorumdem
aduersitate
membr
archangeli
ualeas
recuiescere
concuir
planetarum
fomes
##ueo
presepi
luceat
relicuas
accipientes
cogitauit
coniuges
adducere
maligno
primogenita
dulcius
hodiernum
##sionem
sumat
minatur
inuari
tacite
siria
codicibus
mansuetudinis
stercora
capacitatem
tergum
lini
cuantumcuncue
putrefac
expau
conuiuia
hispaniam
facilitate
uacuo
thalamo
dest
titum
##ignific
sanari
amati
intelligibilium
sollicit
assignatur
talentum
cadauera
gauisus
gerebat
inania
result
sumendo
sapiencie
liberalitate
mutatus
subsann
inobedientiam
sescu
perperam
proditor
benigna
commodi
latrocin
aaa
preexist
uela
aggressus
motiua
terrenam
instituto
bethel
ansel
bethlehem
humore
feruens
##archus
still
sumptis
preparata
eruditi
subuer
predicabat
editio
elementi
ornamentis
transmitt
percussi
desperatione
turres
eatenus
##iner
actui
superu
pennis
preuis
considerate
scribendo
distinctis
complures
consumit
fluui
rudis
antiphone
occursum
afficitur
habuerat
pecoribus
commotus
sincere
compost
lucidum
discant
actualem
traditiones
piorum
fretus
indir
lucida
elatus
descendentem
retinent
infidelitas
lectulo
hercle
intrep
pecorum
reclam
laudo
mittet
pergam
nom
terciam
uiper
poposc
putaretur
uirtuose
intellegentia
multiplicata
assumptione
samson
xlii
eat
##ebatis
poscit
morali
exsting
ignoramus
cepta
assumptio
patriarchis
diocesis
thronus
unanimiter
exodi
##andiu
presep
compesc
uisitat
##aphat
reputat
piram
legalis
horarum
uirtuosum
indignos
nouitatem
iungit
digiti
altitudinis
incorporea
impotentia
deficeret
spelunca
humores
generales
annunci
ecualitatis
noceat
sillabis
extreme
secularia
commodis
fumo
uerificatur
uolat
regius
conca
ignea
falc
dimens
puritatis
productione
cantat
##atissimo
deducere
patroni
blasphemiam
##titisset
prerogatiua
tunic
suppositio
scriptam
indigni
iuramenti
componuntur
bucc
eclip
lot
chord
amores
libra
feratur
fugerunt
estimant
##berti
dictos
libras
liberatur
traduntur
cecitatem
monasteriis
fortissimus
philippum
etates
##unct
coad
rectissime
nominant
phas
##escent
innuitur
singulares
cogitans
comparare
iustificatio
familiares
fregit
cene
rare
##com
interrup
teuc
tenorem
locuta
cuerendo
##illorum
aureo
suscepimus
nascatur
congregat
confidere
suspendit
componi
pelagus
senectu
impatiens
coordin
celeri
seminibus
##uxisse
discipulo
latinorum
excuti
uisitationis
bud
diaph
sanare
alg
scirent
saluo
putent
puteus
directa
inuidus
constitutio
ebdom
dispensare
antecedente
pluuie
alacr
despicit
scribendum
direp
iniuriarum
rumor
propem
dominetur
soles
supernis
carolo
compendi
propheti
dignitatum
considerantur
confessi
ibunt
assumens
ministro
domesticis
eamus
exeg
##acitas
aceru
peccasset
spiratio
concurrit
angulis
petarum
osti
finxit
seruiens
letum
census
portans
suggerit
lutheri
##ideris
communitas
asserens
athl
preputium
nemus
proueniunt
intemp
absum
diligeret
homerus
institutio
fixum
collocuium
ceruicem
pompei
archidiaconus
uolatilia
69
eue
xci
singularum
opinionibus
definitionibus
fabulam
seth
reprobos
mesopotam
ecuora
muta
luminibus
cognitis
referendum
frigidus
pudorem
benignitatis
commodius
turpia
comprobatur
pip
arund
facientis
formari
iacentem
retorcu
determinato
disciplin
erigere
pompa
propemodum
##uentibus
fleb
desiderabilis
tentat
iunii
presidia
florenti
recedunt
choros
subinfer
machabeorum
redarguit
tis
##ander
subtus
isth
istrahel
uindicat
temptatione
incredibile
deferre
accr
locuantur
ultio
mutuam
perpetuus
uestitum
unctione
consimili
bore
remissa
time
septemb
negocium
diuidunt
predestinationem
cognouerit
interfecti
consimiles
thessalon
hiperb
solenn
audient
dimittitur
desiderans
uenerari
subdens
moueantur
suffragiis
uelocitate
cuoscumcue
mug
uibr
subesse
sponde
soluendo
oblatus
assumptam
mixti
desperationem
prauitatis
interueniente
##ilum
constitit
componit
iussum
predicamentum
marco
introm
posteriores
immunditiam
ieroboam
desperatio
exercuit
clip
euge
lincu
ama
postula
antepon
argentea
cuiescat
consign
thar
expellit
possideat
obten
reprobat
contrahit
obliuionem
##publicam
##icionis
ambitu
peccans
causari
minuit
antip
perduxit
eleganter
fruges
emancip
pabst
adhesit
precipere
hee
exhil
instructi
unice
audax
cuereretur
tribui
ingerit
direx
prohibentur
superborum
paganorum
transeuntes
haut
claustro
dolorum
acceptione
adiici
anticuam
immortalitate
propincuior
introducit
himnus
uulneratus
debitis
agr
##eratam
libertati
duro
efficacius
declinat
hiacinth
progressus
##itatam
ageretur
rempublicam
eutic
figurate
cogatur
presidiis
digitum
fiducialiter
sapore
legislator
xpis
##tiz
chim
commem
compulsus
templis
siluam
olfac
contumelias
compellit
eleemosinas
absurd
continentes
pluralem
##ingunt
penitentibus
perdita
tarde
dos
##adab
conferunt
noueris
numinis
innititur
latebat
temptat
soluendum
sonitus
baptizare
inuisibili
fragilitatem
hesper
alimentum
incuisitione
pallio
extemplo
##ament
paras
superesse
offendere
manifestus
cepisse
fallitur
incessanter
obsecuia
conex
##uitati
faciei
scriptorum
##oniz
possessionibus
narratio
menibus
tirannidem
ingrediuntur
hirc
cherubin
irreprehens
##ribi
capillis
##fero
hierosolimam
indigentia
trahens
intendens
incorruptionem
opposite
adipe
decipit
protestatur
prag
##lichen
uolenti
paus
testante
affectionem
protector
73
tund
##uplic
deuast
unicam
uicini
labitur
auctoritati
separati
orietur
prolong
imperfecto
sarm
abhomin
depositum
semita
cuiuscuncue
exsecui
hispani
cocc
apocalipsis
stomacho
arithme
periret
examine
ent
sciendi
diuulg
tantorum
dormiens
reuocari
accedentes
intendebat
consueuerat
nazar
nonaginta
##opum
##antias
insci
carnific
sperans
interrogare
candor
industriam
concern
##ulimus
cognoscentes
munditia
profus
responderet
exiguum
deprom
puniuntur
dente
sel
##sta
intelligantur
scripte
penitencia
basilius
nazare
tig
##anci
scap
aspex
uenas
preceperat
dignosc
prestante
instituti
iube
circumstantias
cinc
ri
rote
##rias
patens
commou
maneant
demerit
petebat
uersari
cogere
accuie
conferri
regressus
fantas
itur
regale
creans
assensus
offensa
ablatiuum
columbam
pueritia
perditione
refectionem
dantis
habeantur
##ebius
dixero
credenti
relatum
figurata
pastore
meliori
perfidiam
##atissimi
depred
gignitur
molestiam
##uendam
##sisti
pondo
ths
acute
cultura
nesciebat
trinus
interpretatus
malefac
grauissime
torcue
dissimiles
crudelitas
beatissima
cuieuit
conatu
seuit
deberi
iudica
supell
elationis
producuntur
essentialia
titulis
uigilare
uolumen
compassione
etim
animata
cuass
intelligis
anne
demone
miserabiliter
presentialiter
caliginem
nihili
##ebar
arr
precogn
senserit
episcopatu
intellegat
congregauit
persecutionibus
incuru
frugum
aul
iumentorum
utros
posuimus
trita
rectos
humanorum
cogitet
##estribus
conditum
concurrere
gaba
hinn
nund
##aticis
predicamus
angulus
anglie
turtur
durius
censetur
seueritatem
expediat
sollemnia
recogno
cara
cuerim
seruili
terrenus
prestant
auxiliis
uestitu
potentis
remittitur
continuus
passuum
donata
innata
urs
clamans
abstinentie
transeun
uadunt
obstet
discrimina
ciceronis
neptun
euuangeli
##rimus
##minis
##inte
seb
possedit
probetur
accidisse
colluc
distinctas
custodiri
detulit
congregationem
ascendat
uermes
alma
impendit
licuefac
democr
corporee
ibo
applicatione
cohort
strenue
eust
uiuerent
communionis
##iisse
emb
meritorie
separatis
mercedis
iosaphat
peruersi
gestorum
momenta
pessime
ephesios
entitas
mant
enar
debuerat
configur
cleri
extremorum
remanebit
postremum
effusione
pauore
##lxxx
inibi
deesset
##iscere
remitti
doctis
indica
feceritis
demet
paterfamilias
aurig
considerant
iustificati
phisica
definitum
infidelitatem
uictimas
fletibus
francie
##tiorem
diuer
remittere
negationis
sorore
sortitur
lectus
confirmata
pelagius
opportune
##zo
dicatis
demor
elucid
soluendi
exteriorum
trinitati
siluas
inducunt
temptationibus
intrinsece
herbarum
rigorem
prauum
darent
sectam
imnus
facito
sinai
cirillus
discat
ualeo
exemplaris
elegerunt
claudi
glossam
fraternitati
circumstantie
infamia
##iceret
sich
sinodi
teneamus
honos
denarios
externa
habitationis
informat
decepti
dalm
##ulph
parcit
currum
uicino
patior
appellata
lignorum
ingenitum
estimatione
obliuio
hispanie
effusus
amplific
ledere
##hus
secr
epil
##ideretur
cuerenti
anticip
uberibus
cameram
auferatur
confundantur
necuitiam
magistrorum
ineffabiliter
inherens
peritus
deiecit
salem
emerit
cualitatum
deuotis
pacifici
remittuntur
omnimodis
##oles
subicitur
supplex
puris
pretioso
guill
##amar
factura
singularium
firmitate
exhiberi
confundit
reuertetur
crastinum
influentia
ueniali
precio
##inianus
##eratos
curric
pertinentes
declarare
condiciones
fraudis
ambrosii
imminente
inanes
europ
molestias
elench
sedebit
erzb
intret
abscis
expuls
ambitum
melioribus
postulauit
occurrat
superflue
crastino
natione
conati
secuendo
arbiter
tentationum
fabulis
prophetice
consecrata
nocturna
erzbischof
cann
##udine
##actam
immis
flatu
probatus
gaude
ambitione
spatii
prun
uteretur
conscia
moueret
docente
tenu
probabilis
prudentibus
occiditur
abundantius
siracus
lacueis
triangulus
austrum
octobris
proscrip
perst
atrio
locutionem
demonstrant
morieris
abba
crucifixerunt
pellem
manichei
utroscue
uile
##imodo
##perfec
sedeat
commissis
ponendi
euangeliis
collationem
scribuntur
perdiderunt
precedunt
fabri
familiariter
pariete
contumeliis
nexus
baculum
tutor
pru
obduc
asiam
totos
imperson
relincuam
premiis
obseruatio
saturni
lucilius
gallie
##trix
secern
essentias
continuam
curandum
sexum
omnipotentiam
indiuidui
cater
ierosolimam
##induc
excipitur
commisso
supplicii
noticiam
tribulationum
scitote
impetrauit
metaphisica
carbones
##abimini
##eretis
uiderant
cunctas
firmam
relincuo
contradicunt
distans
inordinata
ionas
iupiter
cisterci
demus
cumulum
ipocr
parmen
auderet
##anni
priuatur
pietati
tentoria
captiuitas
religiosos
prepositiones
feda
risu
breuibus
surrexerunt
iher
##ebre
##itasti
culmine
denunci
nuntia
cernit
seuerus
crudelitate
supernaturalis
samuhel
doci
ferebat
meg
amabile
agas
cognitus
confitentes
militaris
dictiones
abbates
reuelat
horror
oppositorum
linc
uertere
consignific
dominator
presign
uocationem
uallem
edificia
ciath
exorta
auditoribus
fingunt
richardus
distare
atria
incis
humi
teneris
absentem
significaret
emerg
alicuoties
relincuat
blasfem
balsam
traditione
aduocatus
centurio
genealog
baculo
zw
##inaliter
locos
agnos
gladi
clerico
nudi
adulterii
proponere
inuolunt
fruendum
sagittis
exstr
sensisse
cognoscamus
apparatu
negoci
descenderet
tenebrosa
canonico
##fieri
##anii
##ueti
uideritis
uicerit
putantes
herac
patientis
adiecta
refell
edita
concupisces
obedientes
cedunt
deficiet
theodosius
narra
degust
diffunditur
chore
arripi
solacium
generationibus
ullius
ecuore
constern
limen
diges
ewang
ecuanimiter
##odia
scriptor
uicesima
inutiliter
iugis
sublimitate
##aticos
meminimus
denotatur
altus
uolub
iudicando
precipuus
guttur
parisius
uespasi
##isma
enit
potentior
solutus
iacent
terminat
damnatis
obseruanda
hierosolimis
inconcus
disputationis
eruditione
deducitur
essentialem
sillabarum
perducere
inops
ebrietate
protrah
transili
uniuntur
multiplicationem
uarietatem
honorius
ineuit
debeatur
iudicans
notantur
nobilibus
uersantur
torn
condesc
candore
barba
##icon
##edibus
lucre
occub
appellamus
concordie
offeruntur
condens
cualitercumcue
reuocauit
eruditionem
seueritate
preclare
hipoth
##icule
formosa
intellectiuam
eternas
ascende
respondisse
medias
triumpho
incerto
subtilitate
pannis
eclesia
scil
attig
consiliarius
uincat
irrit
##titerat
obtentu
amplectitur
arguendo
permittat
uu
##xisset
##raud
licita
mensium
respondeant
confitendo
hebreus
consummatum
ouile
we
inueh
secuerentur
coacti
uocans
defendat
prepositum
adiuua
clauditur
fulget
docuerunt
crisostomus
rigore
promptus
meretric
noscitur
muti
utebatur
diuicias
concit
iudicamus
moto
infirmatur
dedistis
laborauit
percussa
aggrauat
##eron
amantem
maximas
tractum
mitteret
coguntur
sublimia
concui
raimunde
mesti
accensus
audisse
##eperint
confessorum
statuerunt
prefatio
dispensationis
perceptione
didicerunt
uberius
incuisitio
miserias
##carum
debuisset
##upere
casti
tacitus
conuol
descenderunt
flagellum
octaui
immortale
commentatorem
arietem
diuitum
artifices
resper
causalitatem
debentur
generalia
preerat
principatu
horto
penitendo
iulius
importune
tirannum
perhibent
salubri
stephano
continuatio
ceperint
##errimus
concueritur
##ciperent
uiridis
attem
incumbit
conuersari
ascensum
fundi
heretica
usuris
cellam
##aminibus
dicturi
uoles
necessitates
passibilis
premiorum
existimet
limit
interfectus
excitare
75
cac
uill
##iales
retic
##osthen
##culas
acclam
mutationes
exsec
expost
retori
damnauit
cesset
mendaces
ciuem
polic
appropincuauit
tutelam
elemosinas
intercedente
cupiditatibus
abram
appl
preconia
figuratum
hebet
offerens
stratum
attendens
corrumpere
irreuer
prauitate
iaci
zor
consurgit
##ada
saltu
##istas
epith
saluantur
delectatus
turbata
trahat
conformes
opprobria
iordane
fluxum
sentiamus
sidus
##gil
positos
recogit
uolentis
damnatorum
letantur
##utiones
intantum
solere
coarc
credam
reddens
theologiam
samarie
absconditus
prescientiam
appropincuat
ecuiuocum
sabaoth
74
spret
generatum
brux
dubiis
exponendo
procederet
usuras
reuertuntur
xlu
incuisitionem
basilica
sceptrum
##sisset
deerit
superm
debiles
colorum
ascendentes
umbil
imperfectionis
titub
phariseos
consortes
regularis
proiectus
impressa
ptolom
##osissime
liberatione
alicuotiens
ascendendo
communicatio
perueniret
uocalem
extendi
illuminati
fallaciam
ablatiuus
agnoscat
esaiam
propincum
examen
incenti
audiam
uocatio
##estici
indicio
prelatum
portantes
priuilegiis
marcellus
inuiti
pristine
76
sentis
uaci
erg
thra
pulsus
intrabit
preterire
##entissimis
confidens
idoneos
##tamenta
mediatoris
disson
martii
cogente
consult
ambulantes
erigitur
cooperante
ubicuncue
inconsul
brum
censum
gulam
interficit
angulum
accidat
patietur
canonicorum
leuem
ambiguum
percipimus
peste
parate
cuocuam
relincunt
ducuntur
ceptum
rapitur
peruenisset
finitis
conflictum
uiuitur
legatione
##pres
append
afferunt
tradic
plenitudinis
theodo
orbes
permanent
neuter
monstrum
penuria
uue
##ason
##ellarum
superuenit
frumento
profite
benedicam
confessionum
clamauerunt
nascetur
congregatis
renatus
attendat
achilles
circumdederunt
crebra
cecinit
sile
##enarii
omnimodo
insistere
fecerant
nuntio
metro
illuminatione
exceptione
improbat
helie
antiochus
bina
dee
trices
obtur
specula
uitulos
coniuncte
stultorum
receptis
comedat
astris
militi
contrahere
trancuillitatem
exeuntes
euse
eusebius
abrenunti
cupis
necc
habiturus
sciatis
iudicantes
moriemini
consummatione
peregrinum
matutinum
torrens
inobedientia
senectutem
saci
soni
tutus
domestici
ecclesiastes
##enciis
soluat
festina
morbis
caueat
eucharistiam
commixtione
dabatur
ledit
honestis
separantur
faber
peccatrix
cardinalibus
abiecta
claustrum
tramite
tec
lateris
obediunt
deuoti
susceperit
tolet
militare
desinentia
corrigi
precipio
arietes
increpat
incidunt
dotes
habendam
ecuest
geritur
indigentiam
repugnant
transmutationem
percipiunt
folio
impotens
terrestrium
zorob
mm
##iac
libano
pharet
premittitur
molestum
innocentium
indefin
##enem
simph
operantis
mundare
ordina
sensim
diffam
inueniens
currens
commemorationem
propincuius
unctionem
##aticam
sobrie
fraternitatis
pertransit
naufragium
magdalena
clim
insper
impur
iustitias
carnium
accidia
memoratur
acha
traditio
morbos
mansuetus
ioachim
dcc
scuam
progreditur
reduxit
##positiones
latuit
experim
xxxiu
conseruatur
commemoratione
occisum
subsistunt
iusserat
subintr
pretextu
##fa
##alum
spopon
aspicit
miserat
notion
predicauerunt
anglia
uulc
contritum
iubemur
martire
possessor
limites
reprehendere
pendens
femininum
frugi
fortiores
##isterent
mechan
incredulitatem
sallustius
##rb
##uleris
allud
##aneam
prona
admirationem
crudelitatem
constantinopolim
xliii
diocleti
idolatrie
mucr
mill
##tinis
aph
essencia
susciperet
defraud
alienas
cepisc
habitationem
indignationis
copiosius
auxilii
decernit
manifestissime
commodo
ferret
portione
cogitando
finitus
soluuntur
diuidens
accusationem
prebeat
conseruari
theologorum
prelib
fluuio
recedens
sillabas
moment
platone
adueniat
gaius
pios
##onensi
adesset
absalon
transig
herculis
permissum
meroris
producens
unamcuam
miraculose
copulam
ludo
angusta
adinuenti
##eng
capud
formatus
subiecte
desideras
arbitram
custodibus
latinus
speraui
tentare
petitione
excommunicatus
tormentum
antecedentis
athenis
pristina
principalius
promeruit
tercius
uocales
redeant
feram
mirabilibus
signati
eleuatur
maledicto
fatentur
prefert
arag
feris
##sist
##tans
soler
recessus
astitit
tantos
##tissimorum
distinctiones
frigoris
ambitios
angelicis
percepta
empire
proficiant
##ordiis
torrente
uadam
saule
certissimum
necessarias
luca
uitanda
incompl
magisterio
defensio
exultatione
tonitrua
concretum
reuiuis
iudicate
illib
miserationis
disco
summitate
subiectorum
palme
conuenientius
raptum
murorum
utilitati
conserua
idololatriam
excipit
sanctissimum
commota
phras
transuers
cultor
ducatum
grecie
conuertentur
hieronimo
legitimo
solidos
uoluminibus
ihm
mundanis
absentiam
liberalis
donante
multitudini
descendentes
egritudo
germania
repperi
rarum
soleat
monumentis
signauit
premissum
##uentus
ensis
reuerentie
cruces
extremi
abundauit
##errimum
defensor
stercore
datiuo
##andarum
eiectus
ecues
uirge
sanctificata
##itorium
explicari
confusionis
cernens
dimittimus
pudicitia
catil
clib
##itauerit
accing
minuta
ostio
canum
uictorem
inheret
iniustis
fornace
perseueranter
hiez
perambul
arid
scep
##apte
assu
audientiam
depop
exher
planete
incommutabili
coniectura
##ocles
consona
grandem
calicis
pertinentiis
intraret
completi
proporcion
arguunt
fugiat
effectuum
corripitur
accuiescere
##ruit
uolitum
precium
tantundem
aduersatur
confirmationis
prolab
pelago
egrediens
unguento
eruditionis
cognouissent
oh
##ositas
##uton
frumenta
indiciis
timebat
uniuersitate
deduci
restituat
ciuiliter
adiuuet
siriam
institutionis
funera
discutere
obnoxius
zorobabel
ee
nactus
##iton
apposita
agrorum
regnabit
subiectam
munita
impleretur
conuenientem
deditus
indignis
sapph
consurgens
histri
unamcuamcue
dote
subuertit
prosecui
marcell
subtrahit
patrimonium
dac
iacula
##scrip
tenenda
perfectissime
acuta
perpetuis
laborantes
dulciter
assumptionem
indigere
contritionis
consimilis
immitt
perfecit
laban
terminari
consecuta
##euntes
antecess
duplo
##iden
remittit
remediis
fland
separatas
cadet
purgatio
secretorum
tond
paucioribus
supremo
prostratus
uiridi
paupere
##uide
##aculis
iras
dimidia
succedere
traderet
agnosci
ceph
cuarrang
dependent
preclarum
masculino
pinguis
secretis
patrocinio
obtrect
abor
semi
existentis
##naum
attribui
perficiens
subdiac
hebraico
sortitus
incognita
fib
ferit
anax
ench
uiderem
capess
operantes
ardenti
prosperitas
feminina
idololatria
oic
##anch
##tito
sapientum
longitudinis
claruit
concordantie
abundant
corrumpunt
prouerb
80
##regn
superess
##auia
nocendi
externis
sollicitudinis
nutrix
musicus
uenturi
socratis
penultima
humeros
similitudinibus
collatum
absolutionem
moriendi
negotiorum
contempta
musicum
limine
discretioni
fictum
exercitia
erasmum
agricul
diuturna
conuictus
secundas
solec
resul
animale
aspid
magnalia
finite
lecta
apparuisse
correptus
intuitiua
cutis
uena
flac
signata
expul
detra
diuisim
consecrauit
gemitum
irruit
concuti
immediatum
delecta
caliditas
attestante
pulcra
ebdomada
profiteri
lο
eternare
porcos
adhere
respondebit
explicite
serpente
condicion
harri
remanserunt
##matum
ostendendo
sumptibus
susceperat
paganis
adiuuare
exspectare
superexc
big
diceremus
escas
rectas
statura
libens
serio
inspicere
mundis
huiusce
assis
mirantur
negas
confirmatione
ablatum
perseuerant
remoue
achaz
insignem
pretiosis
nuntiauit
suffragium
thomam
crudelitatis
conuocatis
palea
drach
dabant
anagog
##issos
modicam
magistra
ceruus
maioritatem
negatiuam
saluam
patientes
pertineant
expensis
suscepto
candidus
occupauit
difficultates
otiosum
troia
##omata
##olub
orandi
carminibus
regionum
exsistere
confessores
congruo
narratione
temperat
paterno
piscatores
elicitur
correctio
sigillum
tectis
cune
cuestum
debebant
semis
docemur
tribuunt
prosili
corrupt
letabitur
septimi
caudam
78
titio
##ilhel
sicilie
iudicetur
credatis
certissima
pullum
exerceri
participem
horrendum
intimo
accesserit
certitudine
telum
facinora
##alitates
##idiis
utebantur
sume
locuimini
moneo
indiss
putaui
gaudebit
senibus
demonstrata
##acuc
ingenitus
descendisse
succedunt
athanasius
79
ademp
utantur
dictionem
habuimus
eiici
mutetur
litteralis
accipiam
exhibetur
complexum
dormientes
brachiis
preferre
picta
impudenter
februarii
testa
##graph
##etatibus
excuis
intellego
uicinum
proconsul
ualentes
penitentis
sustinens
ambulemus
captiuum
eligat
canonicum
albedinis
dogmatibus
collocuio
debebit
placeret
obseruat
pugnant
obtineat
iulianum
consensit
decepit
fulci
consistens
ccx
adepti
repetitio
eliseus
extinguere
77
uiciis
##atoriis
uocaui
predicamentorum
ambos
manifestam
suscepisse
cessabit
flagit
ieremia
genitricis
suspiria
stomachum
ear
##rebant
impositionem
augere
dignitati
##ixe
scribunt
nouicius
declinantur
prouocare
deprecamur
saxum
circulariter
habitas
infim
stolam
optare
contraxit
insec
curu
collatis
mereretur
geruntur
plurime
congregare
statuimus
retinuit
prophetico
pharaonem
peregrinatione
impulsu
##ocuncue
cecidisse
productus
subsidia
iubes
securum
deficiant
sordid
farina
resurrexisse
##iur
sedent
essenci
saluati
exsistit
munic
publicanus
sonitum
##ensiua
consumitur
uigilat
itinera
implicite
gustare
plaust
interualla
ripam
cristal
incendit
ponet
ignaui
euell
regnet
coniux
martirem
uadat
perficiatur
beli
##antissime
##tiamus
legenda
passiuam
memorat
latens
institui
origenis
femur
mattheo
noticia
nouitas
negligit
crescente
galliam
chaos
deaur
simonem
accessus
##assum
docentes
senserunt
uicos
leuauit
diligitis
ualete
acuit
seruandum
ductu
psalmistam
ardere
reuelationis
peregrinis
dissoluit
fugiendum
progenie
dante
gran
caphar
proferunt
obiectiue
instruere
euidentia
describuntur
festiuitatis
certatim
figmentum
##fen
consulis
remor
audiet
iactura
##encio
seruiuit
decimis
distinguantur
cuarragesimo
tribuni
incurs
rose
##fere
laudabunt
nouissimi
baptizat
consuetudines
rubic
retributio
circumscrib
triangulum
profitentur
mosa
rari
reposita
passioni
fero
adiudic
elocuentiam
conformis
logice
stagnum
pestem
rut
##uin
##icor
##urrex
cuiescunt
##ologis
##actu
internam
decis
suspici
mutant
ordinetur
concupiscere
consiliorum
herede
imperfectus
immortalitas
defensionis
otiosus
oliueti
acumen
lugdunensis
xp
dicerentur
uisitauit
conuertimini
clausula
introducta
antonium
aduenerit
omnimoda
uirilis
inferunt
sinon
ultr
denarius
sonitu
irrita
##esimi
egritudinem
horrore
condemnationem
satius
precipiendo
consimilia
matutinis
fruitio
sodomorum
postridie
multim
conflig
compendio
intellectionem
perfectissimum
conscii
gregibus
deuinc
responso
cedis
repugnet
ludos
adhibetur
organis
funere
calamitas
feminino
tipo
conscripta
esther
periti
recoli
ultione
leuat
putemus
manifestis
temptare
bibunt
particularium
resistentia
fraternitas
aduena
massam
difficulter
litis
##nes
paret
statione
aggreditur
suscipitur
lauda
pertinebat
distincti
canem
priuari
occidat
illuminatus
precedentia
mentitus
distulit
canonicus
bouis
refectio
simbol
iracundie
leprosi
auaricia
tendens
##deb
dia
sciss
bef
diuersus
laicos
confessa
##tibili
146
religioso
religiosum
stupe
perditio
pessimis
diffuse
burgund
##aticus
procid
putandum
calci
aduersitatibus
egro
tradat
dulcem
limph
corrumpuntur
angustie
germina
amplecti
cubile
derelicta
obnoxia
proficiscitur
gelu
asseuer
##uie
parue
crines
incarc
iusserit
monemus
discon
putetur
ualeri
multiform
antistes
precedentes
decembris
dormiunt
flagello
uulneris
nudam
displicere
pacificus
redundat
fenestram
utendi
suburb
scen
sciebant
coitus
operata
concid
damnata
fluminibus
satisfactionis
eleuata
preclar
renouatur
##istebat
uua
arena
coitu
operarios
##feris
mutationis
sanctificauit
obligationem
confunditur
illustrat
nutritur
dilexisti
detrimento
intellectualibus
recuire
scibile
obest
presentie
sentiendi
corrupti
radium
assumpte
interiore
remoti
constantini
stimulis
millesimo
suapte
extirp
essetis
sciscit
infimis
atom
humanitus
multif
ueniebant
extat
clausit
nobilissima
xluiii
additio
ptolem
##oduc
israh
uoco
relictus
uictoris
relincuentes
agnoscimus
ludere
diuite
pauor
ferment
hauri
obaud
humorem
coloss
##escentibus
sapientissimus
prepost
eleuat
pronus
diluuii
ampliorem
barbarorum
uiciorum
senectutis
goli
uteris
arta
scala
uocali
predicit
florum
subsecuitur
adorabunt
obstaculo
afflictionis
eleuatum
unguenti
ictibus
perturbatione
aufug
sinistro
denuntiat
gedeon
annumer
ferentes
negationes
adiit
reflec
statue
occides
ethera
pellibus
malignis
complexione
primitie
accidentales
fluxus
debitoribus
##uamus
##iano
debuerant
insati
suscepti
tractatur
debitorem
persecutoribus
girum
lodo
##irus
uteri
cueunt
anuers
##itiem
malitios
odire
elegerit
sabbata
latronem
uirginalis
nepotem
positiue
mirifice
proiici
sinderes
##ulerint
simulatione
saluandum
siluarum
mact
fragilitas
artificio
zachariam
inuitis
thimiam
88
##eor
diom
##acensi
anc
##annus
sanctificat
159
narrationem
andr
paruip
##alissim
abrup
pheb
beel
constaret
laicorum
cecis
complete
cruciatibus
uinctus
relincuatur
imperfectio
fragilitate
neruis
cautelam
subdiaconus
deici
##ritis
heros
notare
electo
extulit
confidentia
hebraicum
palmas
presuppon
centesimo
neph
##uini
expeti
enea
obedit
grates
secuentium
seruiant
impossibili
gemitibus
successor
pepi
fragilis
##berg
dispositus
herode
infusionem
uitiosum
transitoria
subintellig
perdic
omissis
apes
##egi
posuisse
intersit
desursum
predictarum
humanos
secuestr
firmauit
secularem
puniatur
malignorum
collectio
formido
resistendum
clarior
insinuatur
##cubr
peripate
ladis
rura
erec
ponebat
excitauit
referam
epistule
stulto
occasion
translatus
facilem
impudici
discursus
##icii
core
cautum
agendis
nominatiuum
ducum
metuunt
tacita
intrauerunt
prouide
correptionem
meretricem
lupum
austro
mercurii
leuaui
analogiam
cumb
miserabilis
uicarium
lectionibus
congruere
tolerat
conciliis
patronum
administratione
pulsat
repellere
turg
debuerit
monita
differenter
multiplicari
experimur
laborantibus
consimilibus
uille
supernaturaliter
domicilium
lui
sanctissimo
legalia
agebatur
putans
materialium
inconst
letari
glorioso
eligitur
declinatione
theologica
recordatione
austri
gim
##atii
pontem
idemp
tumulo
furta
font
prefuit
##esimam
duxerunt
adhibita
augmento
fauum
increduli
conuenirent
regularum
compassionem
guer
exus
reclus
inco
precatur
decidit
indumentum
petiuit
prebent
uulnerum
occiso
annuntiat
perueniant
diacono
subiacere
tetigerit
claro
pariet
angusti
literam
accidentali
risibile
earundem
buti
##pem
delig
propuls
humilium
gratianus
colump
transibit
obseruant
purgari
efficiatur
numerari
consecrationis
exorcis
moriturum
leniter
mediocris
grammaticus
conse
uerissima
##ficare
scol
emitte
promittere
appellatum
sensitiuum
dialectica
capharnaum
lili
##tites
legens
humum
corporeo
immensus
speciosus
relicuerit
desiderabat
oblita
subditum
indiuisa
supponunt
centu
daniele
pinguedine
para
precum
liberationis
pretend
custodem
arces
meliore
funus
fecunditatem
septentrion
soi
inerat
intercep
curari
iubeat
delere
fabule
lauare
apollinis
correctione
uacill
##titum
intest
postero
exspoli
exerceat
prestari
147
cupiditates
persecutor
perficiunt
descriptionem
iactantia
uomitum
patrocinium
lute
pedit
##ze
peractis
##ira
poteram
superedific
constitute
decemb
elocuiorum
presumptu
deprecor
pertrac
fulmine
collegium
redimeret
prefertur
illustri
characterem
coruus
recitauit
nummos
labori
tribum
descensus
implebitur
priuatiue
radio
prudenti
contemplatur
originaliter
stipulam
laurentii
hostili
azim
fess
tetr
##υs
peccantium
ecualibus
augeatur
dignaretur
ambitus
opinari
uixerunt
imaginatur
astrorum
phisic
hiemis
dilexerunt
stomachi
gazophil
diadema
dantes
caiph
solas
resili
furem
clamabant
fabul
contrarietatis
coronas
ludis
collectis
cardinalem
emendationem
nouembris
himnis
rudes
correspondet
influentiam
fatem
aridam
desicc
alterc
obsist
propositam
productam
prohibens
limpid
temptationes
floruit
pleros
pignora
collocuia
antuerpie
uitas
intens
compendium
transibunt
cuantumuis
diuinos
rapta
cedem
paschali
deficient
distributi
indiuisibili
patronus
reficit
tenes
delectationibus
indigeat
prosperitatis
spoliis
diminuti
chaldeis
intuitus
precesserunt
morsus
gratius
descendi
expir
affectionis
publici
heretice
accub
relincuetur
admirabile
compositam
presumpserit
exercitatione
preuidit
paraclitus
##eton
unitates
habiti
oblec
recub
operaretur
generationi
documentis
secuimur
recordationis
imponi
latitudinis
##fug
##auc
cuietum
eneru
chil
cecili
multiplicati
concedenda
captiuus
perseueret
himnum
insipientes
euitern
recuiescet
patrono
rata
estas
habentium
dominationem
##age
repul
hortis
salutat
comparetur
clamoribus
molestus
securius
stipendium
gratanter
percipiat
uictima
parie
tob
exili
extitisse
recid
iterato
milli
ignoret
fundit
referenda
inuenietur
oraculo
persecuentibus
digitus
coloratum
eueniunt
##iro
dicendus
potestatum
peccantem
##entesimo
##itaui
laudatio
turbatur
consolatus
importatur
peruersum
nuntiatum
crucifige
inaur
oram
cuonam
comparauit
recuirere
bracch
reuelabitur
larga
corruptibilia
refrigerium
ror
creditor
saluabit
inuidet
cupidus
dirigatur
propincuo
usurpare
sacrosancta
indeclin
moderamine
pleroscue
ueneti
support
egere
taceam
efficiente
perseuerauerit
adhibenda
gubernator
carcer
prauorum
epicur
benefacere
fuissem
thurib
##ebitis
extiterit
uidemur
isp
concinn
predicaret
significabat
famulorum
proflu
familiarem
suscipiendum
proferri
uulgari
draconis
amnem
adium
intuere
positionis
superari
caracter
capaces
immense
priuationis
cualic
materias
uestigio
eremita
basilicam
pestilentia
uenefic
##acitatem
posuerit
asp
mensas
mutabile
cognoscetis
cuantas
exercetur
ibis
coronatus
fluminum
recollig
apposuit
##idion
legionibus
facietis
tenera
contineatur
exemplari
pomum
exposuimus
rabiem
comminatur
saporis
abstracto
obliuioni
frangitur
inhonor
iacuit
demerg
defendunt
ualebat
herodem
prodidit
firmata
confirmatum
claram
propincui
metaphora
complexa
unigenito
ingressa
taurus
scabellum
hat
chrisostom
infecta
committi
elati
miratus
unacuacue
negaret
exsuper
cogitant
complacuit
dormiuit
allegoriam
identitate
clauium
exhered
##tilis
adora
potuisti
afferat
diligatis
discr
exsicc
territus
nescius
redierunt
intimis
definire
uoluptati
solitudinis
incedit
preseru
communitate
emis
fugat
extensionem
silentii
inconstanti
auspici
gradatim
corrumpatur
scuto
leprosus
85
##uite
amamus
colimus
agone
audirent
seni
premitt
complacu
completo
absoluti
indigentibus
musa
punctis
lugub
refecto
draconem
entitatem
locuplet
conflictu
neruos
gurgite
philisth
ueritus
spiss
diuo
generetur
##annis
prepara
molesta
gemini
exigat
confusi
iudaice
peregrina
cantici
polluta
complexionis
instructionem
massili
segetes
cexist
percon
##perem
haberem
atter
uolare
causantur
saluauit
scripserit
sororibus
concilia
peiora
iuliano
compertum
aspiciens
euangelistarum
bipes
acceler
connumer
81
hex
deerat
factos
debili
generant
longior
iacens
priuate
edificata
inferna
candorem
candidum
attribuuntur
euangelicum
tiranno
stupore
nouemb
auerte
additionem
obliuione
beneuolentiam
amalech
zebed
##udinem
utar
che
uoluntatibus
cuisnam
latam
assumi
allegorice
cardinal
suffragio
franciscum
esaia
propitiatorium
agricole
naus
ueros
superis
##alim
humida
leuibus
negligenter
prostrauit
ammir
iurisdictionem
acciperent
einen
82
imis
remisit
intellectiue
significetur
patibulo
dimidio
iniec
illicitis
possidebit
clauso
exprimuntur
egregium
obtenebr
indissolub
##lixit
arbus
semitam
repellit
uenialis
uirtuosi
latria
accipietis
celebrantur
abscondere
nudis
expectant
latronibus
perficiat
dissimulare
acsi
probati
infirmo
succur
tortu
successorem
excellens
rubro
exaudiri
claudius
eliam
inexcus
exsultatione
troie
86
wind
utamur
sanam
fracta
accum
dimissis
sororum
exhibeat
ligatum
conuiuiis
honesto
descripta
definiri
permittente
possibilitate
conseruet
immaterialis
##asius
deceat
totas
uenialiter
mandaui
conueniet
interrogationem
bibendum
oracula
serpenti
incipiant
presumere
legitimam
peracto
fortibus
##acioni
uoluntarius
indubi
uinctum
ambulate
aristotele
emped
cocle
inseparabilis
exclamauit
##poris
arrid
filiarum
aspec
uictis
call
cultoribus
gaudiorum
benedictiones
satisfec
scriba
recepto
paruulo
censeo
##flex
detrahere
transierit
ebrietatem
aduerbio
eripere
cauete
gis
exiti
uerid
accenditur
sacrificare
negocio
gemmas
constantino
tereb
pergere
reo
errauerunt
habitis
legata
pones
absump
compung
timetur
miranda
constell
reno
abundanti
maledictio
sensitiuo
cauill
iuuante
frugibus
confortat
excessibus
cuidditas
normam
concupiuit
zabul
dominantur
pauit
aggress
locatum
ecuor
seruans
sanctificatus
peregre
euidenti
obligatione
fraudes
moderate
lesione
masculina
danihel
solitudo
operuit
carnale
cultui
dilectis
extendens
pulchram
confirmet
prohibita
incommodum
sublimes
custodiant
confugi
controuersiam
decipitur
ds
probus
carolum
uenund
regat
celare
nocumentum
iuuenalis
materies
arguet
supernorum
comitatur
aperiat
consueta
##edie
uerissimum
illustra
superni
excre
apostolatus
procerum
philiste
euangeliorum
demonstrationes
uouit
habitabant
existimare
rubore
stercus
militantis
procuratores
percutere
collegit
saraceni
##zeb
erra
fertil
lucens
defuerit
dignanter
imperatorum
sorb
alienigen
absoluto
reuertamur
molle
consuluit
affirmatiuam
affligit
oppositam
domesticos
cuesierunt
plateas
certiorem
dinoscitur
deseruire
zona
stra
iusiur
##uidi
fluens
putarent
desideramus
edificii
pariat
admiratio
cernis
sulphur
go
ranc
labefac
aduersantur
nocent
canere
obiect
prebendam
altaribus
reuersa
transmutatione
contentiones
mature
absurde
phantasmate
refriger
impassibilis
oceanum
apponitur
fortissime
altissimum
rectorem
ostendo
iacturam
articul
occultus
coniunctionis
ianuis
tristem
sordida
frangit
discordie
transgressio
incurrere
deseruiunt
freg
hun
mε
pem
tendat
dominic
manifestata
fundamentis
moleste
uixisse
accusatione
numerare
admonitus
applicare
liuore
familiaritate
barbaros
euert
##hon
infig
sinite
claret
uiuas
eligendi
permanebit
magnificentiam
steriles
respuit
baln
competunt
precipiens
innumerabilia
grandia
zabulon
bec
liii
colub
ignari
affig
demoli
permisc
puri
dissensio
indicatur
gemit
receptionem
exigentibus
descendet
disputationem
frontibus
presumptionem
incredibili
fecunditas
opportuno
languore
popularis
imparti
amittat
enchir
##liam
manebat
insulas
ferant
sperauit
tabul
felicius
biberit
habitabat
iniustos
confitens
duodecimum
uadis
pendent
moderatione
clade
ignosce
conscend
corrigit
fefellit
xcu
xlix
unitati
legisse
damnatur
##primum
perditum
condere
uirginali
cardinalium
funibus
prompta
inuoluit
dotis
genetiuum
nicht
migrauit
ze
prologus
necuiter
potenciam
feroci
diligendus
personalem
respondebo
accipies
sensualitatis
declarant
occupare
assumunt
splendida
sabbatis
uineis
nuncupantur
appropincuare
insipientibus
compassionis
longincuo
incircumscrip
euphr
iris
piam
apponit
obesse
carus
##adum
liberalitas
leuitatem
instante
gentili
excellentius
perseuerans
dirigat
eleuatus
cubiculo
immobiliter
subtrahere
murmure
pelles
calumnia
spheram
contagione
cuamplur
aristotiles
inciperet
positas
amanti
recessum
precurr
lucere
labsi
simulat
mediatorem
cantor
medicis
honorari
auxiliante
aucta
nebula
indirecte
aule
tinea
##udi
resump
interire
tenebant
attendi
merendi
maledictionem
occurrerit
exhaur
essentiales
peruersis
assiduis
festiuitatem
oliua
89
debilit
minu
aduersitas
preceptor
infinitate
confirmari
securis
uendentes
turpitudo
incorrupta
inspirationem
conditorem
immaculatum
promittens
peperc
aromatibus
celsitudinem
specialia
aulam
##ultum
##olet
aptius
ales
principalibus
doleat
odia
determinauit
accuiri
inhes
gubernat
inuigil
coherc
obnoxium
psalterio
tred
primord
nouerint
generatus
cognomen
donationis
lacueus
medull
contigisse
##esem
##lich
chol
ponto
compulit
pertinacia
tribuens
tumorem
exigua
ministrant
adhiberi
sollem
pandit
pingui
carminis
mereb
##iensis
uidissent
forinsecus
pecudum
sumens
suppositione
euam
cuerant
ualebit
consulatum
superbo
preparatur
ficte
approbare
tumultum
maculas
uigilie
corripere
cerimonia
psichol
##hom
proem
decer
iudicantur
uenienti
determinari
proprietatum
string
hebrea
narrantur
uanitates
ampla
amaritudinis
gignere
xlui
eia
omissa
nece
plano
rememor
cognom
diligam
aduersitatis
diabolice
recipiendo
fabrica
captiuis
docuimus
appareant
ridiculum
##inensis
poteritis
chron
phar
propriorum
mares
instant
sensualitas
presumunt
conformitatem
excubi
ecuiuoca
lazari
bisso
sun
zeli
utere
##acumcue
tremor
mortes
scalam
libelli
laudauit
ignoratur
ardenter
septimam
iugi
ligare
frons
admonuit
rustici
hiemem
iniustitie
preualere
infamiam
ciceronem
lite
unter
postposita
oppositionem
accentus
operit
curribus
reuertar
discretus
sodoma
fastidio
iusiurandum
pellis
##ιn
exiret
##abundus
superueniens
asaph
immensam
lucanus
ualerius
delectabiliter
theologice
uestimenti
immolare
inordinatum
absced
inobedientie
uerificari
supput
triangulo
incolumis
ulcera
dorso
libellus
clerum
iudicatum
##feram
medorum
patiente
ingentes
damnatum
multiplicare
abbreui
sepultum
presumpsit
elicere
promittunt
compostell
indubie
consoci
interiit
sinapis
decano
elatione
inutilem
dolori
uidearis
meritorius
seruierunt
promissam
pontificibus
geom
bernardi
iccirco
consumpta
extraneum
promereri
athenienses
mera
timeant
xuiiii
xxxix
constituens
conuertat
imbrem
dubitauit
uaga
danielem
correctionis
tuscul
##amo
deposito
intent
disponitur
nominatus
absal
dispendium
concupiscibili
supplicationibus
colliguntur
consecratus
sistem
phariseus
deceptio
dimittuntur
administrationem
zacharia
pretereunt
##atiuos
tru
sols
deiectus
infant
predicate
diligentem
dolosa
pulueris
horrib
scribarum
medietate
mollia
nubila
numerantur
surgat
nocturnis
deprehenditur
rusticus
dialog
habebimus
uolendum
debuisse
clades
uitem
aperiens
infirmitati
subsidio
instituere
argumentorum
raptim
rogans
nupta
percussum
tristicia
uentri
uigilanter
eximie
cucur
aristoph
##issiones
facienti
imperia
##ulistis
denario
cordub
profan
proximam
firmamenti
consecuencia
mercenn
percusserit
sillogismis
archipres
disponens
ineffabile
ripa
ennius
baculus
84
uilia
uicinus
laboraui
negandum
egent
succend
compleatur
illuminata
tolleret
coniugali
confidimus
fatue
recordari
peruersitas
astring
dediti
deditionem
studiosus
cotidiana
anaxag
bab
mero
uuas
##pli
adel
exe
##abee
diane
haberes
fortissimi
oret
diligatur
particulam
dubitari
sublimius
transfert
competat
ambrosium
insolub
uitiose
uictimam
telo
horrea
commercium
cantum
##sem
erecta
aberr
##ege
leuc
complere
opinantur
lectorem
caderet
commendans
inclinare
conuertens
fulgebunt
crisp
unctionis
tempestatem
methaphis
catechum
bibliothec
edem
acus
epit
preuia
auctori
longi
figuli
lectionum
branc
sustineat
##tibiles
iustificatur
calamo
fatigatus
terribili
meru
titius
nect
abrog
imitatus
terrem
moratur
asin
uictr
effemin
declaratio
satell
defertur
imputatur
gutta
perniciosa
pulcherrimum
insuffl
dator
ibit
##odecimo
digress
sediti
peccatur
donatio
consecuamur
relicuorum
nescierunt
angelico
cxuiii
windesem
glo
ustinus
uicerunt
senn
prostit
letatus
indiuiduorum
spatiis
afferte
lugent
inserere
pictura
persuasit
interdicto
elementatiua
orientalis
immunes
ionathas
##integr
arbitramur
auspiciis
87
bass
##itteretur
##itterent
etati
uerti
amalec
elationem
laudando
cana
addat
seruiamus
gerimus
intellectuale
delab
delub
habitans
coniugalis
##atissimis
nudo
condemnat
ictum
uelocitas
clauem
uniuoca
phantasmatibus
nexibus
conspiciunt
auertat
empireum
deuenit
spina
infantibus
fletum
##itiua
studere
uesci
occupatus
machinam
ingrediens
undecimum
ualentinianus
authenti
ruti
tenta
depic
exib
scitum
desiit
mistico
##ixit
##echi
reuelatur
irrup
abundanter
profunditatem
fulgura
babilonia
##menon
socrate
pauciora
tegit
pharaone
zeph
##ulerant
diog
##iosam
cognosce
acceptionem
collab
moriar
sufficientiam
pascuntur
adulteri
exortum
coheredes
##bunt
##ιs
consp
subrog
impellit
intellege
prefatione
alicuamdiu
piscem
dirige
militans
adiunctum
94
##bam
substr
decessit
ponis
doctos
##uamine
senio
impleret
uixerit
musice
prosperitatem
exspectatio
excitatur
coniungere
dimittam
pudicitiam
caduca
resultat
sedecim
##regit
orant
##olibet
communitatem
timeret
gaudeant
epistolarum
brutum
susceptione
offerret
ierosolimis
allegat
celeritas
uacui
dogmatum
arrogantia
hospitem
concubitus
melli
##eren
peccauimus
desud
debeam
putabatur
accepte
millium
canonibus
firmius
cepimus
cepisti
mollibus
edificant
efficac
extremitas
accusatiuum
prolatum
declinauit
promptum
contradictorie
acceperant
agamemn
uapul
nid
superpos
precordia
sensibiliter
absentes
egi
##aneos
diuiserunt
inducat
celebretur
inclinauit
seueritas
torrentem
cohortes
contractu
##uisses
inculp
dominationes
restitit
accensa
repetitur
putantur
laudum
delectet
solido
prefatis
descendendo
152
apprehensione
leuitis
consonantes
innotescat
expecta
93
peli
altissima
infimum
continentis
##minum
communitatis
porticus
calend
inferiore
distinguatur
suspensa
procuratorem
complexio
specifice
uectes
esaie
periurium
chirograph
96
siciliam
statio
penates
uocauerunt
ascendam
##rich
tempesti
intellegens
duri
minimam
auferam
schola
suspicari
celebrauit
iurgia
sculpti
presepio
coadun
leni
##fe
utentes
##acam
esum
libram
audias
signantur
emman
clamantis
ascendentem
exaltare
presidet
germanie
festinatione
##cioni
proth
##plast
preco
contemplatiuam
suffec
imbres
saturno
lucubr
difficultatis
dandam
sicco
dominicus
coacta
despex
annon
certas
demosthen
ferox
##acher
consecuente
adiutus
passiuo
percepit
exercu
excedens
bor
ith
esch
amato
fric
sempr
monuit
audiebat
recuiram
sensualis
respondeas
ciuilibus
instruxit
ligandi
rober
mendaciis
rotund
elicit
antiocho
appropriata
cuidditatem
##pol
##hm
##eratis
##aniis
maculis
superos
obitu
diutissime
susurr
thema
uictua
audierint
terret
premitur
##lustr
corrupte
coniunctim
purgationis
consecratio
fulgor
occisionem
regulari
calefacere
##din
inuer
sucus
unire
caperet
parasce
fortissimum
cret
tuetur
calump
ordinationis
deteriora
##cisci
ieiuniorum
ruinas
sitiunt
sigillo
otiose
compatitur
satisfaciat
md
##uexit
opum
reduplic
doces
propositis
consecuentur
tumor
benedicentur
prudentem
rogaui
uiolare
inclinans
inuisibilibus
fragili
salubris
scripsisti
pulcherrime
ezechielis
degener
dc
##tatum
##enen
anch
consed
docendum
subiectione
cogniti
intellegant
duplices
uictori
docuerit
remouere
pessimus
homicidii
gutture
actiui
abstrahit
sanctuarii
pluscuamperfec
iel
deuenire
trinum
apostata
inueniam
terribiliter
effectiua
missione
morsu
commendationem
151
inuisibiles
inuocat
seminatur
africe
tempestates
euangelistam
xpi
##andri
persas
labora
##eperant
armatorum
mouendo
prouidet
repertum
profunde
##redus
important
incuirendum
inexp
comprehenduntur
sacramentaliter
addiscere
perge
##iauit
##ariz
cuintili
labi
ualles
diuersitatis
##ucionem
constituat
metas
prospicere
profecit
contemplatiue
geminis
inclita
recipiet
obtest
resurgat
connect
lepram
booz
rigor
consimilem
corruptibili
preuaricationem
inexper
eurip
dampnum
exuber
habiturum
##rois
conclam
porti
secuaces
concordes
desideret
eminus
sarcina
##uimur
##xerint
##uncula
illab
recomm
signatus
corpoream
noluisti
firmitas
breuitatis
inuitum
obscuritas
uidebam
dormientibus
messias
fumum
niter
wal
neu
formetur
docta
benefici
multiplicantur
sonet
inconfus
gemma
tollens
particule
tractari
sublimitatem
tiro
bases
immutabiliter
excludere
discordiam
apuli
fortific
animantia
interuent
intelligerent
perfectioni
benedicit
instantis
obseruationem
prouidit
reuelante
restituta
magnifica
cualiscumcue
glorificatus
##auerim
accidentalem
sinagogis
miscetur
languor
actiuo
hastam
tenendo
penitentium
sonos
coniunctis
familiarius
ascenderet
commemoratio
supernaturali
bereng
fastigium
exhilar
gerat
uende
##laus
perleg
erex
pateris
solue
##acionum
alterationem
demonem
permittere
multotiens
catholicum
instrumenti
consentiat
habitatoribus
transfund
prefecto
subtilitatem
seuitia
esuriunt
maxillam
deuteronomii
iniuncta
fossa
92
fodi
saph
sele
cortice
legationem
confabul
redacta
##tamin
cognoscet
materialia
figuraliter
tacta
portabat
barbara
horrenda
peruerso
finiuit
adiuuari
heliam
assiriis
fraudulenter
subaltern
supermund
lodou
cuorsum
##iber
gratian
ulcisci
laudabilem
##ixi
comparatus
missionem
ardentius
restitutio
uocabuli
salubre
antoninus
acceperint
sacramentalis
##arti
notione
iuueni
multiplicatione
iubent
tollet
narrationis
claustr
euangelicis
meditari
resistunt
stephanum
archidiacono
drag
eueniat
nero
uerr
uelles
mago
gracch
faciles
assistere
multilocu
audierant
complec
camino
uestimentorum
incertus
econom
pacifica
preualuit
sollemnitate
lutherum
frigiditas
nociua
uerte
cuamprimum
uocet
excidium
fecissent
effod
audiatur
fugite
obiectionem
ignorabat
intellectuum
pecuniarum
recipientis
celebrat
captiuorum
remunerationem
contristatus
turribus
stridor
incaute
##rach
##ume
prid
aderit
##ensos
comam
inscrut
concion
exhibita
leticia
educit
arietis
stultitie
columnam
eremo
phebus
heremo
niniue
patefecit
tunicas
iacu
pri
sano
superpon
interl
discedit
cogitabat
greciam
instare
breuius
occidens
abbatibus
ciuilem
abundans
comederunt
canonicam
largiente
parietibus
dne
##uendis
##urn
uirgis
generet
manentibus
mensus
plenarie
offendat
exigunt
conuertendo
concludunt
paternitatem
temptationis
prouerbio
iussione
ezechiele
ms
uolant
legationis
uocabant
prodi
distinxit
constitutos
lecti
153
attendunt
cuarratum
refectionis
abiici
ihn
trianguli
pabulum
extinguitur
lachrim
superessenti
sare
##edo
corus
solueret
genas
oppr
operati
persis
demin
permitteret
studeamus
cogantur
tangunt
concubitu
theologos
exprimi
ludic
primitiue
theodor
folium
opportunum
costa
perennis
sceptra
depopul
anchis
foramina
legatorum
memet
honorum
diuinitati
differentibus
deterr
referantur
missos
culpabilis
uanitati
mittatur
oleast
elemosine
certitudinaliter
conscendit
strenuus
aromatum
prauitatem
suggestione
propincus
fatemur
##cat
doceant
fluent
firmissime
illuminauit
consolator
coniugia
commentariis
perceptio
dionisio
positiuo
emptor
temeritas
alimentis
hieremiam
percipite
consubstantialis
##pla
iustius
motore
rele
admittitur
expulit
cesa
maledictione
declinationem
deductus
materiis
asperum
expectatio
puniendum
competenti
fouere
uetustas
speluncam
planctum
prestantior
##acherib
##usi
uersi
fretum
phleg
locuaris
tribuatur
constitutam
offensionis
sexti
proferat
demonstraret
fallacie
puniat
##cribi
inserui
practice
tragt
superueniet
suppositionem
tenebit
digno
intellegas
pugnas
iustificationis
olla
cantil
allegor
commoueb
constantie
insinuare
fluxu
attestatur
familiaritatem
uiles
##ositatem
exard
decocu
colonia
fecere
##ities
rationabilem
ensem
castum
pugnauit
estimatur
censu
excusatione
suscipiant
cerneret
prepositione
inutilia
antiochiam
siccitatem
rapiunt
confiteantur
stabilitatem
superlatiuo
pedites
titus
superuen
morari
precid
laudandum
benedicamus
tradet
cogitas
uenerantur
##titerint
conferens
applicari
tarcu
arabum
subtracta
lem
##uinus
prata
##iades
infantium
thren
uicesimum
dolent
patiendo
accepti
cecitatis
habitantibus
repugnans
planius
detrahit
##rumpere
immem
##iger
curua
doctrinas
meruerit
separatione
extensum
dedere
ardentem
humiliatum
exalta
serpentibus
defensores
afflictus
matheum
cithar
transsubstanti
experiment
eant
ramus
subicit
aureas
metam
pacta
responderit
tradens
diuise
conuenientibus
tractu
uiolentus
imitandum
agnoscunt
conuertunt
negligens
propincuis
supradictum
eleemosinis
recusat
tredecim
ode
##ft
##ogo
ades
sedec
humus
patiar
circumcuacue
brun
iustificare
promoueri
perspicua
apponere
stoici
acceperis
##acitis
grano
libitum
glutin
pope
liberasti
uites
appellatio
pecuniis
exhibent
catenis
dispensator
prepositis
prompte
saxis
pupillo
spectacula
sanctimonia
91
nidum
nubium
uanus
sacco
semitis
##escumcue
cognati
uallo
acuto
grecam
sorde
absolutis
mercator
integris
profundis
preuale
basis
exaltatum
aream
ceperant
admonitionem
mirabilius
aureus
longus
errasse
capitale
medicorum
habitet
statutis
clausus
cubitum
obuiat
constructione
superstitios
reluct
alpha
acumine
premonstr
porphirius
inire
precau
##escentes
demonio
nuntiis
reflect
perdunt
ingeniis
adorat
ebrius
accederet
mixtio
predixi
fugiant
disseruit
planctus
nigredo
mouebitur
unitus
sciatur
irent
existendi
ingenita
flagitia
predestinatum
aduol
magos
recordatur
peruersus
diger
optamus
matura
persuasum
nutritus
potitus
nerui
bucol
biennium
hercule
dandi
##pibus
##αr
enth
superatus
scl
demens
mirrhe
exspir
theologis
confessiones
papinianus
dispositis
communicatur
discerni
tirannis
inspirante
extollitur
transgressione
exacerb
repudii
##onice
##ectit
##cuil
##perentur
comitatus
uoluitur
iudeo
agebant
longas
inueniretur
custodiuit
parumper
posteriore
calamitatis
cilicio
iaculis
bonauentura
tricesimo
etrus
peruert
habuisti
parall
##ophon
tumore
procedentem
cedo
astrolog
dextre
sustentationem
altiorem
stimulus
assentire
stabilitate
fusc
natam
##uitates
distill
##iscus
##tasti
memorare
diriu
triennium
retinens
construxit
basili
obiicit
presumptionis
distributio
transmutationis
tempestatis
discedite
adulescent
neccess
siri
##tant
inung
spicas
despicere
##etera
porc
##iosos
dilectam
gemine
ligata
canonicas
obsidionem
uniuocum
cohibere
iniunctum
uisibiles
cuinte
egidius
psallam
dimidiam
inimic
frecuentes
illuminet
proponuntur
indulgere
turpitudinis
prenomin
cerebri
illustrissim
bac
euertit
racionis
subr
gram
cuascumcue
afflix
uosmet
sententi
occultam
honoratur
defunctum
applicat
inchoat
improbus
frigiditatem
hipothe
lusit
beniuolentia
tardus
##his
##ediam
##anta
alterationis
doluit
admisit
prosecutus
moriantur
confirmatus
procedentes
constitutiones
copie
commentatoris
dogmatis
taurum
licuidum
correlatiuis
alit
celsa
predicantes
generante
alteratione
pertineret
succensus
rapaces
ornat
estimari
suscepi
exaltari
afflicti
posterioris
precipiat
deuoret
pressura
##rific
autenti
dominationis
##ualibus
penn
expans
refund
postulet
inuocare
expectamus
riuos
autoritate
structura
municip
oratorium
carius
operarii
probauimus
prodere
turmas
penitentem
mortalitate
meruisse
consolationes
destructione
sublatum
dissipat
##ologo
diminutio
torcular
dentur
pix
solatio
##agr
ferus
petentes
attente
armata
pecuni
rogabat
processerunt
manducandum
improba
munitiones
facinoris
pompeio
industrie
fideicommissum
inexpugn
90
ocius
propal
crat
impub
producunt
agnosce
magisterium
serpentium
temptationum
collocata
perceptionem
inecualitas
diminutionem
donatist
##untio
oraret
##ischen
concidit
repp
probabili
simulata
accidenti
emi
senatui
memoriter
finit
prefate
recepti
attendamus
facultatis
uigilans
festinant
remoueri
conuiu
psalmiste
fugientem
pastoralis
uerecundie
siccitas
95
hus
cuen
seditionem
sanis
manud
pluralitate
##itias
tollunt
exigentiam
constitutionis
sanctitati
catulus
ecclesiasticos
exsistentium
collectam
auferet
denotat
abusus
lici
##atie
##portauit
uien
matron
certos
uulua
ferie
effusa
auoc
considerauit
reddenda
soluatur
tradiderit
manufac
insidie
gestarum
resoluitur
inserta
transgressionem
michelis
oceani
conficere
##risse
abra
meatus
causalitas
decanus
personali
ducebat
sene
100
petierunt
consecratum
respublica
discernitur
appetat
perhibuit
pretiosi
irrationabiliter
constructa
brauium
##αs
##icimus
ancipi
faces
deserat
iudicaret
##ticibus
imping
leuitatis
subiectionem
inuenisti
statuto
capiuntur
numeratur
memineris
adipem
genitiuo
omnimodam
faustum
mirrha
lie
cute
percuam
eneum
amisso
uoluntariam
generatiua
contritus
demonstrans
molis
difficilia
coniunctiones
destrui
statuas
heir
magorum
circumcisus
competens
uelitis
egregia
tipus
gallias
credidisti
ione
praui
##apost
gaudebat
nouorum
perdiderit
experitur
promissionibus
renit
designauit
pariunt
paternam
amictus
destinauit
auide
participio
abhorret
immortali
precursor
leb
cubitis
cuiescens
reales
abit
intensiue
soleo
receperit
intellectibus
diligant
negamus
pulsa
uiuent
appellati
producendi
radicis
subiicitur
cantabo
imaginaria
incarnari
preparatus
permanente
immolatus
aduerte
insinuans
pelagiani
paleas
sosp
horoscopo
diapason
##uturus
soluto
ediss
conceptionem
mercenarius
sanctificetur
##etai
clementis
monstrare
incredulis
xluii
effusionem
exultauit
##zebub
bem
stabunt
decorum
##aptiz
##eiur
##tamini
plenas
dolose
redduntur
furtim
morsibus
prologo
largitas
luciferum
machina
resurgit
suadere
diminuit
gentilitas
inuadere
##oda
exitio
##tisse
autograph
unite
parta
amissione
factor
marit
predistin
perpetu
murm
letetur
sompn
exceptionem
germanus
rabies
preuaricatione
ceruicibus
incircumcis
extas
operatum
passer
cognoscerent
simplicius
pedagog
redderetur
obiectiones
custodias
titulos
assertio
speculatio
recedentes
correptam
amplexibus
sepeliri
mercurio
platonici
nocu
deponit
##abe
alimon
pecoris
filioli
legentibus
decens
generati
penituit
tradidi
pomorum
peregrinos
exaudit
perfectiorem
sublatis
cuotienscumcue
prefecti
exercitibus
exercitiis
elemosinis
discretum
genetiuus
connotat
desponsata
egestate
plumbum
facundia
cappad
conteret
omis
errauit
debilitatem
phed
uicensimo
probaret
complendum
opinioni
gallis
rapinis
designandum
utruncue
perseuerantie
nauim
obscuritate
metaphoram
desperare
ficul
intrinseco
immobilem
impugnare
liuor
metropolis
geth
lii
##ociniis
##obr
spirare
essendo
ismel
miserabili
sentiri
sentientes
archam
cogunt
congregate
relincui
dubitandum
phisici
exierit
conscripti
attrahit
##lei
grando
curarum
egenus
penitencie
sanguini
opinionum
isrelite
occidentis
delata
baptizantur
maledicere
manducauerunt
excusari
prorog
ingrediatur
eminentiam
laurentius
impatientia
exclamat
deleuit
condigne
ternarius
citat
##uma
sichem
##ineat
supernam
atram
suspectum
laudabo
heredi
terribilem
castell
tacito
petite
peruersitate
interfecerunt
pastorali
hebraica
imprimitur
intuendum
dimitteret
hildeg
dactil
##inosa
##imine
steter
tenues
necueo
##ucione
plenis
mutum
conuersos
##tibilia
eruditis
flectere
superueniente
neglecta
cicatrices
amatoribus
continuatur
significatiue
miserorum
timemus
notanda
ostendebat
metri
distinctus
edificatur
narrant
apprehensionem
graditur
horrida
anniuers
magistratibus
expediens
apollin
eclesie
intestina
tobias
centuplum
cetum
##burg
esth
##titul
anglic
dolis
argent
##limur
antid
lectis
designare
imperfectione
splendide
distinguens
lauat
leuiathan
acuilam
##auerimus
reparare
harm
repetita
fetorem
thessalonic
epilog
teter
zur
##ibis
apti
tener
monere
dilige
donationem
inueneris
depell
assumpti
ueneratur
iustificatione
declinatur
conuertetur
postrema
positiua
correptione
combin
perfrui
parisiensis
trud
##tulimus
attra
formantur
urina
permaneant
expensas
cessenti
sollicitum
manserunt
adorandum
accusatio
comprehensus
frigide
iuuenibus
naute
informationem
oppositi
peculio
assirios
pecudes
sennacherib
##iperet
deordin
aduerse
suco
##tisti
factorem
inferat
uiuebat
immisit
apostas
diligas
laudet
imaginum
inicuitatum
bruto
recipiatur
declinatio
comedite
consecrare
ludi
iuliani
exaltata
luporum
suspecta
fastu
complacui
meremur
##inensi
tritum
##acii
morimur
##aneorum
exstirp
singularitas
succinc
meror
doctore
petita
ligatur
insignes
peruer
uiduas
troph
supercili
uocaretur
##esch
expauit
cuncte
edificatio
clarissima
pugnandum
auxit
largiri
canonicos
##berto
patriarchas
cooperantur
uexillum
simulacris
diademate
hannibal
louanii
##bum
##omag
orto
nolim
sapientior
pretorem
saluetur
constituerunt
cesus
mendaciter
adoratur
captiuam
uiolentum
reputans
magus
columbarum
fugienda
transfret
iunctis
contristari
hipostasim
percussione
extraneis
zebedei
og
pice
##tip
actioni
frib
immix
magnitudines
remotus
difform
descende
turbo
interrogatione
desertis
congregationis
confitebitur
incipientes
reprobum
erubescit
practicus
chaldei
cupidi
cuincuagesimo
repentina
##ces
illac
spacium
etcetera
iratum
statera
deuotissime
iudaicus
accuirat
stipendiis
cubilibus
cooperatur
sitiens
digitorum
ascribitur
pronomine
christianitatis
cuiddit
morale
attico
stantibus
excita
memorem
aperiri
placare
brutorum
oblationibus
familiaribus
obsecui
arbitratur
constituuntur
surgite
circuitus
exspectant
inopem
luthero
uillas
##limin
##immo
cuieta
##abula
arenam
sciph
atrii
gressum
postcom
generata
angust
martem
liberatum
donatur
adherent
mirabantur
sacerdoci
ecclesiaste
terribile
studeant
cecorum
efficimur
negociis
indignatus
purgati
satana
recordatio
traditi
sortiuntur
clareual
argenteis
prouisum
coaceru
ingemisc
specialius
bif
linum
paratam
libellis
india
transacta
paterentur
tribuas
luminos
scriberem
participans
prefatam
arbitretur
libidini
confectum
peragr
carthaginem
adiutores
annexa
pseudoapost
##onica
proueniat
seir
decert
egrum
hostiis
addens
clarissimus
cuoaduscue
ministrabant
campest
pirrh
dimiserit
effigiem
rettulit
dicebam
cauti
iussis
feruet
ostendetur
latin
processionis
tangi
reprehensione
hilari
subtrahitur
exploratores
##xeris
##titem
debui
odisti
separauit
hodiec
coniunctam
conseruetur
largitus
confusum
obtinent
exsistentibus
posteriorem
facilitatem
circumdedit
codice
genitiuum
diaconum
immoderata
septiformis
hodiecue
erectus
##reat
freno
commissi
materna
audebat
##uxisset
preinduc
uitari
laudent
cogitemus
intellegenda
baptizatis
censuit
sepulta
reconciliari
fraternitatem
auersio
gehenna
xliu
cenobio
egestas
pependit
carum
##aldo
##ulti
##iremus
subuenit
mundam
ecuit
ostenduntur
fundus
molitur
offerentes
assumptis
commendatione
118
imitando
integri
condicionibus
adductus
perficiuntur
oceano
misericordias
uales
uenias
timores
premisso
productionis
apparentia
figurat
confirmant
laboratis
blande
incontamin
exiguo
censemus
cognouisset
paternitate
macr
auditorem
descripsit
eminentia
trancuilla
recolit
codic
amplior
languores
sepelire
domestica
henrico
capricor
##urch
enc
comitibus
tert
ambit
scienciam
accentum
regulus
capell
uoluntatum
incuisit
liberantur
cuinimmo
seruate
augustum
custoditur
deleri
procedente
inuitatus
propheticus
schisma
recordare
meditatur
experientie
tulerit
subsistentia
collega
unguenta
circulos
neglegentia
exagger
coapt
aptitudinem
##atiam
omittere
##ebra
scolas
nostr
mouebatur
prodiit
constabat
posteritas
petitiones
profunditas
mensuras
masculi
desperationis
credituri
rebaptiz
consumpsit
conscendere
redeuntes
baiul
porrigit
##iten
contus
atriis
ultor
thuris
probationis
elatio
gaudemus
armatura
elemento
resurgunt
blasphemias
arguendi
iucunditate
soluite
egressum
trecentis
pulcritudo
ewangelium
roterodamus
uep
nonus
##ilat
appetitur
immittit
uicario
problem
senum
gemino
cuattuordecim
communicet
excusatur
pomis
assertione
lamech
presumant
messiam
crebrius
additione
samuelis
prolixius
dissimilitudo
preteriit
omi
libentissime
##antiis
magnitudini
saluationem
perma
fundere
subiit
gallos
mendacem
accusatus
explere
assignata
corripuit
fumi
enarrare
margaritas
ecuinocti
cuereb
uirilem
sereno
malarum
coluerunt
liberalitatis
significato
curet
irati
ducenti
laod
infernorum
oracione
gloriaris
lxxii
exercitatio
decreti
affligi
increate
uniformis
licuor
diua
solaris
phr
locutiones
##chen
significatiua
permiss
accipiantur
membri
ambulabat
existimans
uacuam
nauicula
germine
lupos
pollicit
sepulcra
decipiat
cenobium
cosm
feni
##anium
docete
sapiente
discimus
substantialibus
emor
relationibus
tribulos
cogitamus
delectant
confirma
intellectualiter
tentari
peritia
expectans
contentionem
abiecit
ualidum
aduertit
cxl
obliuiscitur
reprobus
molestiis
neruorum
absconditi
improuiso
plutarchus
pilis
stic
estum
##omi
dictionibus
potencie
intensa
faceres
offerebat
editus
breuitatem
iubeas
cogat
exposit
itineribus
gestu
ascensio
iactant
subtilitas
psallite
tetrag
regredi
##erico
conatibus
apicem
asinam
audeant
probate
aurei
ignorauit
clamantes
uinceret
sanctificare
maligna
directum
inuentione
anap
apri
sanatur
soleant
temeritatis
infrig
causet
preciosa
excessit
absinth
preuenire
audiebant
relicuerat
differentiarum
##atha
ipsamet
publicani
[...]
